#version: 0.2
e n</w>
e r
i n
e r</w>
t h
c h
a n
e n
u n
s t
th e</w>
e i
a r
d i
t i
r e
o n
o r
a l
o n</w>
o t
i n</w>
e s</w>
c h</w>
l i
q u
s i
a u
e l
d er</w>
qu ot
quot ;</w>
& quot;</w>
e d</w>
s ch
e in
r o
a t
a s</w>
o f</w>
in g</w>
g e
i t
t o</w>
di e</w>
u r
b e
an d</w>
s t</w>
t e</w>
d en</w>
d e
un d</w>
a n</w>
r i
a t</w>
i s</w>
a s
o m
i l
p o
o r</w>
t en</w>
r a
v er
o u
o l
e s
a g
a m
a b
i t</w>
a l</w>
w i
h e</w>
l e
g en</w>
un g</w>
s e
t er
a ti
h r
po s
d e</w>
en t</w>
a c
l e</w>
s p
en t
n e
n i
a pos
& apos
d er
z u</w>
n o
ch t</w>
v on</w>
a r</w>
u s
w h
v e</w>
f ü
e m
t er</w>
l y</w>
h a
l o
v i
f f
th at</w>
c e</w>
i e</w>
s e</w>
ei n</w>
S t
f or</w>
&apos ;
ein e</w>
T he</w>
g e</w>
w er
e t
i s
w as</w>
t e
s u
d as</w>
i st</w>
c on
o p
as s</w>
s a
u m</w>
e h
au f</w>
m it</w>
i r
r u
b er
i m</w>
w e
d a
e m</w>
d es</w>
c k
t s</w>
de m</w>
w it
d ass</w>
b er</w>
a d
a h
i g
c i
fü r</w>
g en
c om
m a
t z
A n
p ro
l a
wit h</w>
ar e</w>
i m
&apos; s</w>
al s</w>
b e</w>
f or
w ei
i e
ti on</w>
ati on</w>
si ch</w>
u l
sch en</w>
ch en</w>
s o</w>
s h
V er
e x
g i
r ei
ni cht</w>
el l
S ch
c o
D ie</w>
ei t</w>
i ch</w>
er e</w>
p er
e st
an d
a f
z u
a m</w>
m en</w>
u t</w>
e c
u t
a ch</w>
il l</w>
b y</w>
s ag
T h
s s
er s</w>
in g
t a
li ch</w>
i c
R e
2 0
i st
ä n
si e</w>
ro m</w>
m o
on s</w>
w or
u m
p e
i d</w>
r an
no t</w>
p re
f rom</w>
a ch
e b
ein er</w>
l d</w>
al l
a p
at e</w>
a hr
ha ve</w>
au s</w>
g h
e y</w>
ein en</w>
I n
d en
h ab
al l</w>
p ar
un gen</w>
y e
k e</w>
au s
m e</w>
ou t</w>
U n
d o
h as</w>
w ill</w>
e u
wi r
A u
z i
t ra
w ur
in d</w>
ch e</w>
m e
o o
on e</w>
di es
be i</w>
p l
un g
w ar
sa id</w>
th er</w>
v er</w>
h at</w>
ein em</w>
m an
da y</w>
e l</w>
st en</w>
h o
B e
er i
t ed</w>
h is</w>
s o
n en</w>
ou ld</w>
en d</w>
p or
d u
I n</w>
au ch</w>
l u
er n</w>
G e
ü r
t r
er t</w>
t o
ol l
w ar</w>
P ro
wer den</w>
ä r
th is</w>
b ei
g an
o h
d ing</w>
0 0</w>
au f
m an</w>
k an
C h
wi e</w>
sch e</w>
ü ber</w>
ge b
d s</w>
m in
l ei
m ent</w>
il li
g t</w>
E r
li e
t h</w>
u r</w>
t s
wir d</w>
m or
as s
n ach</w>
m i
l in
i el
ei r</w>
d ur
wh ich</w>
sch af
D er</w>
s ind</w>
ag e</w>
v or</w>
u p</w>
ha d</w>
A l
it y</w>
hab en</w>
sag te</w>
th eir</w>
i h
k l
ati on
E in
w a
wh o</w>
E n
h al
m er</w>
g o
g ro
w en
f in
i hr
ö n
S p
h en</w>
th ey</w>
y s</w>
e p
t ei
i ch
wur de</w>
wer e</w>
ou r</w>
o ff
r ü
m it
er en</w>
u s</w>
t y</w>
u b
e t</w>
k om
ö r
al ly</w>
A r
al i
c k</w>
be en</w>
p p
f i
a k
f t</w>
a d</w>
t en
ung s
ä h
g er</w>
st ell
r ä
n e</w>
al so</w>
w n</w>
g el
re c
gh t</w>
v or
s el
f e
&apos ;</w>
ar k
es s</w>
si on</w>
h e
ti on
it s</w>
g er
ar s</w>
b ut</w>
te t</w>
h er</w>
20 1
D as</w>
e v
am p
l an
po li
com p
D i
h at
o b
ent s</w>
mor e</w>
z ei
J ahr
in ter
ur e</w>
i li
g u
y o
no ch</w>
at ed</w>
ab er</w>
eh r</w>
ss en</w>
ol d</w>
li ch
P o
t w
k ön
li chen</w>
op le</w>
an der
ar y</w>
m on
an t</w>
d ed</w>
s en
s on
am e</w>
b o
c an</w>
be t
e k
s s</w>
f ir
st e</w>
d ent</w>
d ar
S ie</w>
s er
m er
el l</w>
V or
c or
b t</w>
b en</w>
m en
I t</w>
m p
o der</w>
a st</w>
s ein</w>
pe ople</w>
n er</w>
st r
p ri
l en</w>
m u
d re
E s</w>
om e</w>
an n
b r
i r</w>
l and</w>
t re
s en</w>
c re
t u
g h</w>
Un ter
M it
k en</w>
st a
ab out</w>
1 9
s ol
ab le</w>
A b
ü n
ti c
k ing</w>
ac k</w>
ch t
er ung</w>
ub li
z um</w>
j u
f ol
i c</w>
an s</w>
co un
ar i
on g</w>
w e</w>
re s</w>
th ere</w>
at en</w>
h ei
ne h
ü ber
ing s</w>
g ra
A us
w ould</w>
E u
fü hr
0 00</w>
f en</w>
ä l
ti me</w>
m ehr</w>
M a
n ur</w>
t ing</w>
20 0
ne u
le tz
yo u</w>
no w</w>
P ar
Eu ro
J ah
v o
i schen</w>
D e
li che</w>
f o
k on
an n</w>
er n
o ther</w>
M on
g r
M e
h er
k s</w>
t ri
K on
s c
p ubli
hat te</w>
ge sch
b u
el y</w>
re d</w>
g a
wi r</w>
t ro
p la
s on</w>
G er
ye ar</w>
or s</w>
at es</w>
ri e
g re
f u
ati ons</w>
ä hr
zu r</w>
l er</w>
f e</w>
un ter
an y</w>
t ung</w>
en ce</w>
es e</w>
l au
es s
ou s</w>
af ter</w>
t ur
ar d</w>
em ber</w>
ne w</w>
dur ch</w>
d r
ye ars</w>
j e
ag a
c es</w>
v ed</w>
&apos; t</w>
der n</w>
el t</w>
en s</w>
st ri
h in
b i
v es</w>
ß en</w>
l t</w>
th an</w>
schaf t</w>
a st
h r</w>
ge w
k t</w>
ihr e</w>
M en
ti ons</w>
p h
ge gen</w>
se tz
sh o
Po li
ge h
as e</w>
r ot
o ver</w>
si dent</w>
ü ck
wh en</w>
au se</w>
in s</w>
il l
ch te</w>
or i
m is
f ac
st ar
s eine</w>
an ce</w>
ci al</w>
in e</w>
ein es</w>
l at
b is</w>
R o
H o
N e
l ä
a v
ver y</w>
c lu
I ch</w>
st eh
wa y</w>
ti es</w>
si g
fir st</w>
an i
M ar
M in
man y</w>
r en
d o</w>
H e</w>
on ly</w>
s k
r it
in to</w>
y ing</w>
in v
w ür
tw o</w>
h i
M illi
ch ti
s y
un d
il e</w>
h eit</w>
hab e</w>
n o</w>
M o
st i
ti ve</w>
k eit</w>
er te</w>
et z
Jah r</w>
re e</w>
al e</w>
G es
wen n</w>
o f
m ark
em p
B er
or t</w>
a ff
wur den</w>
c ent</w>
Re gi
P re
du c
e st</w>
in n
t or</w>
n ah
min ist
m s</w>
un ter</w>
n ation
eb en</w>
t el
en de</w>
kom men</w>
th em</w>
dies e</w>
th ing</w>
ie l</w>
T ru
v en</w>
oo d</w>
ig h
n te</w>
at t
Pro z
E r</w>
p a
ec t</w>
wi e
d a</w>
St a
cor ding</w>
ge f
b le</w>
kan n</w>
w s</w>
r au
r e</w>
ar bei
mo st</w>
Z u
ver n
ro u
sp e
in i
g te</w>
v ing</w>
us s</w>
L e
neh men</w>
s he</w>
z en</w>
o ur
z e</w>
Au f
e -
ac k
se i</w>
f er
o se</w>
o s</w>
be c
de t</w>
U S
sp iel
illi on</w>
wei ter
e d
on en</w>
Th is</w>
or y</w>
sag t</w>
d am
m ö
s ur
J u
w oh
en den</w>
B ut</w>
In ter
F or
c ur
be g
si ch
c al</w>
we i</w>
ou s
ac e</w>
ag en</w>
an g
pre s
F ran
por t</w>
u e</w>
ber ei
ta g</w>
kl är
kön nen</w>
st er</w>
Ge sch
b ur
an k</w>
ein g</w>
ß e</w>
c ould</w>
om e
ge st
w al
el le</w>
ö ff
ä ch
im mer</w>
for e</w>
N o
h and
or d
em ent</w>
for m
com e</w>
po si
ge t</w>
an ge
s oll
w er</w>
b le
z ur
g ung</w>
c ri
ä u
Jahr en</w>
P er
n ach
m y</w>
de s
d ung</w>
s ei
ol o
hal ten</w>
f ahr
s einer</w>
ch ten</w>
f ra
W e</w>
li ke</w>
Proz ent</w>
st ru
ju st</w>
m t</w>
un der
un den</w>
ti m
c y</w>
A f
la st</w>
ev en</w>
k e
sa ys</w>
gi bt</w>
Men schen</w>
off i
B o
h el
m un
st u
t on</w>
m ü
d y</w>
l ü
z wei</w>
r on
i f</w>
k eine</w>
in ce</w>
z e
en s
ex p
s ome</w>
l ung</w>
O r
ähr end</w>
der s</w>
est i
En t
on n
P rä
en ti
ass en</w>
wh at</w>
H er
lo o
war en</w>
us si
u p
in st</w>
c ar
Jahr e</w>
st e
l es</w>
r y</w>
c t</w>
it u
it e</w>
vi el
m p</w>
re gi
h im</w>
F ra
aga inst</w>
U m
al en</w>
go vern
W ei
st at
s am
m at
se hen</w>
wor k</w>
a u</w>
Tru mp</w>
g lei
W ir</w>
T o
C om
k en
do ch</w>
V i
re ad
vo m</w>
ä t</w>
m al</w>
li t
wh ere</w>
po in
be st
2 0</w>
st s</w>
n t</w>
dies er</w>
en g
N ach
we en</w>
geb en</w>
sta g</w>
wi schen</w>
sch er</w>
bec ause</w>
Q u
ter s</w>
L i
be sch
s h</w>
au p
eu te</w>
e ar
b eing</w>
an t
m ei
K in
per cent</w>
oo k</w>
th en</w>
ou gh</w>
en d
c ed</w>
w ing</w>
us am
co ur
w an
i sche</w>
ad t</w>
L u
le g
in ed</w>
ü tz
d on</w>
as si
ac c
Euro p
ö h
T e
E x
f a
z wischen</w>
por t
k er</w>
un s</w>
wi th
al le</w>
tr y</w>
su ch</w>
z ah
c an
f re
con t
bet ween</w>
w om
i ge</w>
ar o
o c
th ree</w>
in gen</w>
el ec
l ar
d ann</w>
an g</w>
er klär
U ni
T a
un k
F ü
ch er</w>
se hr</w>
n u
ent ly</w>
wie der</w>
l ed</w>
k ed</w>
dre i</w>
de ut
we ver</w>
s se</w>
read y</w>
ver si
ne t</w>
St ra
mer ic
f ri
G r
A meric
ä t
st ra
r at
di d
f all
m ar
er ten</w>
di ff
b ack</w>
n ing</w>
k o
c le
b en
W o
ell en</w>
e f
S y
me di
re sp
be fore</w>
b ot
De ut
er g
wei se</w>
A c
d ri
sh ould</w>
ma de</w>
st er
ho w</w>
n ed</w>
vi e
ri ti
äh ri
E in</w>
z wei
in a</w>
di es</w>
An d</w>
t es</w>
st and</w>
k ra
c lo
C o
öff ent
w ell</w>
w el
m illion</w>
n is</w>
b ar
or gan
gen en</w>
s ch</w>
ch il
th rou
st ill</w>
dies em</w>
c ol
5 0</w>
st re
s eit</w>
o b</w>
N or
F rei
v el
a y
I m</w>
aro und</w>
O b
wor den</w>
lin e</w>
ig er</w>
we gen</w>
us ed</w>
di s
qu i
re l
e k</w>
b el
Un d</w>
p er</w>
e g
Z eit</w>
en n</w>
ter n</w>
ru pp
g ar
ff en</w>
a ir
n um
A ber</w>
n ung</w>
er sten</w>
s einen</w>
ati ve</w>
mö g
wür de</w>
es en</w>
M or
Min ist
w ährend</w>
v ot
si ble</w>
D a
l än
as ed</w>
D o
Milli onen</w>
g ab
c tion</w>
Z ei
bu il
ti g</w>
sch ei
le a
govern ment</w>
en en</w>
p f
con om
tei l
Th ey</w>
z eu
fu l</w>
L ei
b re
B un
w oll
si tz
ih r</w>
th ose</w>
l am
h ar
letz ten</w>
C on
c ent
at er</w>
ä f
ge m
W ah
poli ce</w>
ch an
berei ts</w>
ar -
Th ere</w>
inv est
3 0</w>
nation al</w>
x t</w>
i l</w>
h ol
sch ie
op er
ga b</w>
, 000</w>
st o
publi c</w>
di d</w>
a si
S u
G ro
at ing</w>
s ome
h ig
M an
K o
ä tz
n ten</w>
as h
and s</w>
w in
K om
throu gh</w>
l l
s ince</w>
a th
S o
g s</w>
l y
il y</w>
ge hen</w>
R i
st itu
etz t</w>
ander en</w>
B ar
Ü ber
sch on</w>
al ready</w>
stell t</w>
st ate</w>
t -
s or
st em</w>
sch n
in clu
comp any</w>
be h
St u
Sp iel
am ili
poli ti
ta ke</w>
te am</w>
ver b
ur o</w>
st än
wor ld</w>
c t
A k
di rec
ep t
coun try</w>
woh l</w>
sh i
re por
it al</w>
g o</w>
at s
R ei
wh ile</w>
F in
per i
ei g
F re
of f</w>
i k
den en</w>
pl ace</w>
un i
su p
G en
Unter nehmen</w>
v ol
in cre
di g
P e
ma ke</w>
zi eh
s at
b st</w>
W ir
I s
te te</w>
et s</w>
l assen</w>
ihr er</w>
R ich
M u
sp re
B il
or der</w>
h ät
w o</w>
p rot
ec ted</w>
us s
ar e
y p
v en
e ff
ac cording</w>
D em
w är
si de</w>
Ne w</w>
den ti
th ese</w>
M ark
ti gen</w>
s m
f ur
dur ing</w>
de ci
c all
Ein e</w>
m ich</w>
viel e</w>
er h
m ent
ihr en</w>
K ar
sel f</w>
dur ch
G el
. 000</w>
er in</w>
T ei
S a
ih n</w>
bei m</w>
ge t
e conom
al le
s ame</w>
W e
r .</w>
o th
neu en</w>
et was</w>
E uro</w>
B et
ö ß
d ro
ck en</w>
v e
us e</w>
gro up</w>
b us
se e</w>
p rä
k auf
S e
c u
ation en</w>
k ün
eri kan
lo w</w>
it ed</w>
Regi erung</w>
Ar bei
w ant</w>
th in
stell en</w>
op p
do wn</w>
z eit</w>
un der</w>
sch lie
s einem</w>
p en
F or</w>
t al
S en
vi el</w>
neu e</w>
n s</w>
b l
ze i</w>
ye ar-
eu ro
y our</w>
el n</w>
ti c</w>
or en</w>
mü ssen</w>
t ran
rü n
i gen</w>
ber g</w>
G eb
n or
m uss</w>
c l
T ra
w a</w>
dr en</w>
an no
se con
i g</w>
g ut</w>
ch ar
k ur
B u
B ei
l ong</w>
im m
N ach</w>
su b
ma cht</w>
st ed</w>
g ood</w>
dam it</w>
at ur
O n</w>
F lu
oh ne</w>
je doch</w>
a b</w>
Bun des
sa y</w>
f ic
zur ück
re g
mu ch</w>
b ro
zei ch
w ed</w>
s ed</w>
o m</w>
ma chen</w>
g ri
en e</w>
S ept
b ra
ar ly</w>
su m
sol l</w>
par t</w>
mark et</w>
es day</w>
un de</w>
resp on
ou se</w>
pro vi
igh t</w>
c er
A ut
d ra
al d</w>
19 9
te l</w>
setz t</w>
pla y
ne xt</w>
h in</w>
f te</w>
f l
W h
W enn</w>
Ac cording</w>
- year-
h än
steh t</w>
geh t</w>
an z
I f</w>
A m
par t
kön nte</w>
gra m
c ap
tion en</w>
s ing</w>
on g
j etzt</w>
hat ten</w>
gr öß
dies es</w>
a de</w>
pro duc
et t
L a
th s</w>
i a</w>
ei ten</w>
b ar</w>
Poli zei</w>
de l</w>
Sept ember</w>
J o
u tz
R ussi
wi ck
wei l</w>
oo l</w>
oh n
F ahr
ser vi
c ity</w>
1 0</w>
usam men
rupp e</w>
o wn</w>
num ber</w>
m ents</w>
-year- old</w>
g ar</w>
L and</w>
un s
p s</w>
go ing</w>
au t</w>
k te</w>
da ys</w>
US A</w>
Sch ul
ver su
i ce</w>
chil dren</w>
Me di
aus ge
B eh
olo g
ha pp
f li
f all</w>
en ing</w>
Ger man</w>
pl an
c ess
ti n</w>
schaf ts
ri ght</w>
S o</w>
ü ck</w>
man n</w>
ih m</w>
fin an
wi chti
om men</w>
m em
is su
d ings</w>
W or
wa ys</w>
ander e</w>
H and
st an
sag en</w>
1 5</w>
st ütz
gen er
am a</w>
to o</w>
si ve</w>
F ri
F lü
p r
f er</w>
ch s</w>
au th
pres ent
lich keit</w>
k no
G re
- S
be ss
sch ein
ou t
con c
Ger many</w>
F u
p ul
cont in
Euro pe
u te</w>
anno un
N ation
b eit</w>
ö l
fü n
tic al</w>
d el
A t</w>
ge s
W el
P ri
amp i
Deut sch
re ma
G em
g es</w>
for der
do es</w>
d an
F e
sch i
d ru
a z
C ar
mi r</w>
ci p
be kan
ti v
t ru
emp lo
l ess</w>
tro l
da zu</w>
US -
Americ an</w>
re su
minist er</w>
j ect</w>
J an
b an
L an
ma y</w>
M i
vie w</w>
is h</w>
h ome</w>
diff er
ä ter</w>
st and
nach dem</w>
j ähri
f ast</w>
ur s
t ly</w>
o ver
A s</w>
with out</w>
t old</w>
Ho wever</w>
th er
k a</w>
bus in
h ere</w>
eb en
de vel
Europe an</w>
wir k
th ough</w>
ber s</w>
ta in</w>
eri cht</w>
con si
ch n
sel bst</w>
nah men</w>
le t
f rü
F rau
vi er</w>
steh en</w>
p ra
ou th</w>
c ase</w>
bur g</w>
tr ä
so wie</w>
si on
d ents</w>
Uni versi
Au ch</w>
j ek
et ing</w>
e f</w>
S ich
O ly
f f</w>
Pro ble
G u
ver y
m us
ge gen
N eu
se t</w>
j o
cur r
ap pe
Oly mp
it t</w>
fo und</w>
ch en
al y
Af ter</w>
1 0
ur s</w>
cle ar</w>
K l
wer de</w>
nu n</w>
at or</w>
ag es</w>
Re publi
z o
tion al</w>
h ist
M ich
y -
secon d</w>
li c
i er
h eute</w>
c ul
R u
1 8
se ar
chan ge</w>
En de</w>
wom en</w>
s po
n äch
ist en</w>
ili ty</w>
al ity</w>
T ur
ß er
k es</w>
de c
fall s</w>
ck t</w>
gen ommen</w>
fin den</w>
as on</w>
K an
p ut</w>
li fe</w>
comp ani
F ir
we ek</w>
f il
c ro
b lo
L on
schaf t
for m</w>
f ul
an other</w>
P lat
si s</w>
führ t</w>
f t
d -
at h</w>
I m
v al</w>
tr au
hal b</w>
be st</w>
ac t</w>
a in</w>
Y or
St adt</w>
se ver
lo b
ar t</w>
En g
he ad</w>
fu ge
fe w</w>
call ed</w>
aup t
K ran
ra tion</w>
ing er</w>
g ing</w>
erklär te</w>
B au
A m</w>
t le</w>
pro ble
di tion</w>
b is
ap p
M r</w>
so ci
s -
mu st</w>
Wir t
me hr
ch ts</w>
ä d
sy stem</w>
F amili
thin k</w>
soll te</w>
dar auf</w>
bot h</w>
be lie
si ons</w>
f ron
f our</w>
in nen</w>
c el
b all</w>
ap pro
pos sible</w>
l l</w>
mon ths</w>
ex pla
M ann
v el</w>
de m
b il
B ür
ma j
in di
et wa</w>
de mo
ck s</w>
Pre sident</w>
Fran k
b ri
t ä
pro f
ous ly</w>
l agen</w>
in ing</w>
hi er</w>
den ten</w>
u res</w>
shi p</w>
f am
b lei
Milli ar
C ent
ü h
gan g</w>
W elt</w>
Di en
s si
ke hr
im port
e p</w>
S er
P al
ra l</w>
aga in</w>
Ta g</w>
T u
Sich er
mis sion</w>
kom mt</w>
Per son
Frau en</w>
at ely</w>
ag ue</w>
Ch ina</w>
oll ar</w>
tim es</w>
ti l</w>
s eri
fol lo
de f
ch es</w>
am en</w>
ag o</w>
a il
St re
Flu g
D onn
J un
H ar
E l
war d</w>
f est
M r.</w>
C or
de ssen</w>
Deutsch land</w>
re fuge
f el
devel op
Th at</w>
Prä sident</w>
Gem ein
Flü cht
Ch ri
B ank</w>
en -
M is
li m
en n
ti ge</w>
ri se</w>
am erikan
e very
P f
Fü r</w>
su c
sat z</w>
k now</w>
in e
g ten</w>
der al</w>
be son
an ti
S he</w>
Al s</w>
ä mp
t l
n ot
is ch</w>
fi ve</w>
ein ige</w>
Ge or
for mer</w>
D ur
B l
1 ,
ie g</w>
c ot
S am
sp ro
f un
Ver ein
Kin der</w>
E U</w>
schlie ß
posi tion</w>
it ät</w>
e ch
z ent
wh e
tw o
f äl
c la
Wo che</w>
Minist er</w>
B C</w>
ver gan
ni ght</w>
m es
form ation</w>
P rei
ü l
Prä si
Ob ama</w>
fün f</w>
de st
c as
a di
Gro ß
se l</w>
k o</w>
i z
com mun
U r
M it</w>
nah me</w>
ist s</w>
g lau
er k
W ie</w>
R ück
tei l</w>
son dern</w>
ne ed</w>
k eiten</w>
ic s</w>
i de
da bei</w>
Fra u</w>
ah l</w>
ag re
a cht</w>
L eben</w>
Gen er
un kt</w>
qu esti
pre sident</w>
k ers</w>
k am</w>
fü h
compani es</w>
st adt</w>
hei ts
gan z</w>
fahr en</w>
de u
Be i</w>
lo t</w>
gab en</w>
dies en</w>
z eh
n en
d ge</w>
ck e</w>
Th urs
No v
1 .
man ag
m il
geh ör
ant wor
än der
rei ch</w>
mi d
g l
er ste</w>
al es</w>
Thurs day</w>
L in
C D
. .</w>
w ach
s es</w>
b ank</w>
at s</w>
an y
all en</w>
T re
Gesch äf
t a</w>
h op
c e
am es</w>
r ate</w>
p ass
in f
b or
Y o
Donn er
B es
v al
or ity</w>
on es</w>
bei den</w>
al t</w>
S onn
mi lit
lich er</w>
Lon don</w>
Di ese</w>
B i
z äh
wei t</w>
star t</w>
sp or
gre at</w>
ge l</w>
di en
b s</w>
S un
G ra
Fri day</w>
g an</w>
M ex
p le
our n
m ot
di sc
d on
U S</w>
D on
2 5</w>
wei ter</w>
to ber</w>
ie der
c ess</w>
S ü
D ollar</w>
5 0
k un
f ut
c ra
al ways</w>
L o
rec ei
le ft</w>
ih nen</w>
ec ts</w>
da von</w>
P h
G ruppe</w>
4 0</w>
t ors</w>
sch ool</w>
pre ss
ni sse</w>
glei ch</w>
el s</w>
e li
c amp
K re
1 00</w>
or d</w>
m el
lan g</w>
H aupt
sp iel</w>
ein f
ch ang
c ar</w>
Sta ats
sever al</w>
pri v
di g</w>
G o
weiter e</w>
par ty</w>
a way</w>
Yor k</w>
t ook</w>
M at
. ..</w>
sei en</w>
com ing</w>
F i
se x
l in</w>
ing ton</w>
gro ßen</w>
ge sam
er dings</w>
st ei
gh ts</w>
er st</w>
ch e
be l</w>
b au
W i
C lin
some thing</w>
poin t</w>
br au
are a</w>
tic ul
sch ul
re m</w>
f rei
en ed</w>
busin ess</w>
buil ding</w>
an c
Wah l
tur n</w>
f ar</w>
di stri
Nov ember</w>
Mit arbei
1 8</w>
wür den</w>
th ings</w>
m a</w>
lat er</w>
hig h</w>
g ed</w>
ep t</w>
Ent schei
A t
mu si
lo cal</w>
k ein</w>
is m</w>
import ant</w>
c ame</w>
war ds</w>
ol le</w>
l ag
is ed</w>
al lo
W ar
Milliar den</w>
n er
e very</w>
b illion</w>
F ol
sup port</w>
la g</w>
e vi
a ig
M ann</w>
H e
u al</w>
ta ken</w>
re port</w>
ill ed</w>
er war
er ungs
ber ich
Gesch ich
fac t</w>
est s</w>
b in
at ors</w>
an ts</w>
al most</w>
z er
un til</w>
stell ung</w>
ne e
gr und</w>
d au
am ong</w>
a i
w o
th re
en ds</w>
O p
vergan genen</w>
si te</w>
i eren</w>
hel p</w>
gel e
we ek
ti vi
ti ert</w>
se c
per son
ch ts
ch ed</w>
all es</w>
ah r</w>
w ahr
t or
le ast</w>
b li
Un ited</w>
L än
m et
le gen</w>
in s
em s</w>
al ten</w>
Tei l</w>
R es
Europ e</w>
C ol
ut es</w>
si cht
r a</w>
ge st</w>
der en</w>
co ver
alle m</w>
G ar
per son</w>
kom men
ge stellt</w>
fi ed</w>
d i</w>
con tro
col le
amp le</w>
Sp iel</w>
D ar
woll en</w>
as se</w>
Er geb
zur ück</w>
wär e</w>
v oll
tri es</w>
te ten</w>
t ät</w>
si cht</w>
kon nte</w>
invest ig
fut ure</w>
announ ced</w>
O n
G ren
B ro
to day</w>
setz en</w>
ru p
inclu ding</w>
et y</w>
com pe
whe ther</w>
so gar</w>
schaf ten</w>
p ur
c ti
bet ter</w>
O ne</w>
Di es
sp äter</w>
re sear
lo ssen</w>
l ing</w>
cour se</w>
W ash
D am
ß en
vi si
ti g
l and
is ation</w>
h um
g ame</w>
S P
M c
F all</w>
B an
reg ul
par ticul
f ten</w>
arbei ten</w>
K amp
th ir
refuge es</w>
i ert</w>
W it
W hen</w>
Mit g
z en
su ff
str ali
ra cht</w>
p ast</w>
olo gi
mo b
me eting</w>
in de
gen d
con tra
N i
In v
y m
ur y</w>
er rei
t sch
s k</w>
re ally</w>
qu ar
go t</w>
er halten</w>
V ol
St ate</w>
G i
um s</w>
e ach</w>
a k</w>
S h
R om
wen iger</w>
th e
n ess</w>
li g
ver sch
sho w</w>
poli tical</w>
o w
ge ment</w>
f lo
an st
al th</w>
W est
tion s
n ei
h ör
den ce</w>
be wer
be come</w>
ad ded</w>
U .
Fü hr
Au gu
pl ac
p u
on y</w>
ih rem</w>
ic al</w>
i se</w>
i er</w>
gro ße</w>
g lich</w>
führ en</w>
M än
sp ort</w>
ge wi
Yo u</w>
Donner stag</w>
&apos; re</w>
re le
mon ey</w>
hät te</w>
f ang</w>
com es</w>
U hr</w>
L eute</w>
tra gen</w>
to wn</w>
si tu
ni e</w>
le b
ho wever</w>
differ ent</w>
M al</w>
L and
Flücht lin
spe ci
p i
hal f</w>
b ed</w>
S cot
J e
yo ung</w>
teil te</w>
sch en
gro ß
ex peri
coun tries</w>
a -
W er
Pro du
Ar t</w>
wom an</w>
lau t</w>
d ly</w>
Sun day</w>
soll en</w>
ser v
r und</w>
r in
ou ght</w>
m ed</w>
fam ily</w>
a el</w>
tra g</w>
ne y</w>
h and</w>
L eb
F ac
ha ving</w>
ch o
Mu si
B ra
t ure</w>
on ce</w>
mem bers</w>
h ard</w>
gi ve</w>
ch ni
an a</w>
Don ald</w>
Augu st</w>
6 0</w>
201 2</w>
om ent</w>
in du
h igh
de sc
Wash ington</w>
Au f</w>
Ar beit</w>
- J
zei gt</w>
wan ts</w>
pro ject</w>
ni chts</w>
gen d</w>
camp aig
br ingen</w>
z un
sag e</w>
pre vi
off en
näch sten</w>
l age</w>
gem ein
c ou
Sy ri
3 0
w rit
ver s
ne ver</w>
k ämp
d or
con stru
c um
O ff
Frei tag</w>
tre ten</w>
to p</w>
t ag
mon th</w>
f ind</w>
Or gan
1 2</w>
- jähri
ti gt</w>
sp ra
ge ther</w>
f an
er r
ch ter</w>
Wel t
B el
200 8</w>
sm all</w>
k es
in formation</w>
h ouse</w>
eh em
d ort</w>
bekan nt</w>
b ie
ar ri
ab ly</w>
Z usammen
H ei
A ss
usam men</w>
th em
sh ar
l on
ex ample</w>
H aus</w>
5 00</w>
ür z
vi ol
s ing
repor ted</w>
i es</w>
com mit
W ed
H in
w at
re st</w>
leg al</w>
i en</w>
eu er
b in</w>
W ohn
S atur
P au
F il
pla y</w>
ori ties</w>
k rä
hät ten</w>
da für</w>
bo dy</w>
D is
tu n</w>
pl ann
o d</w>
la w</w>
in ten
fol ge</w>
ein ge
S ei
P u
O ber
H am
ör den</w>
wan ted</w>
re si
pos ed</w>
or e</w>
dar über</w>
Te am</w>
Fu ß
B ot
se t
lo s</w>
li ed</w>
den n</w>
d ing
a y</w>
T ri
Pro jek
P ra
te e</w>
sch le
m ä
k s
en der</w>
b ach</w>
T el
Person en</w>
ver letz
ter n
ro ss</w>
fron t</w>
f eh
eig n</w>
e ver</w>
Kran ken
I hr
si ert</w>
rie b</w>
poin ts</w>
ourn al
ol d
am s</w>
R au
J oh
B ay
ö g
m m
kun ft</w>
ig ran
finan cial</w>
am er
M ein
ver öffent
offi ce</w>
o s
gre ss</w>
ex per
der e</w>
CD U</w>
ta in
st är
li k
f as
en th
contin u
compe ti
ci l</w>
M ari
201 5</w>
with in</w>
t ali
sch rei
lar ge</w>
l s</w>
ie f</w>
fra ge</w>
econom ic</w>
a ir</w>
Universi ty</w>
un t</w>
t ot
po pul
n am
k ti
f iel
ell er</w>
b st
Wed n
B ru
B re
Arbei ts
to gether</w>
p ä
ge macht</w>
eh t</w>
Sta aten</w>
Mit two
Al l
z ed</w>
sh ed</w>
kra ti
h ö
geb racht</w>
Qu e
Geschich te</w>
B us
B r
t ar
servi ce</w>
pl at
lä u
lie gt</w>
gab e</w>
Do ch</w>
u tion</w>
su ch
stat ement</w>
sch aff
o gra
lan ge</w>
in n</w>
d at
Wedn esday</w>
Fin anz
Clin ton</w>
z usammen</w>
unter stütz
se cur
ic k</w>
he ad
elec tion</w>
di gt</w>
c ted</w>
ah n
M an</w>
D es
Ch ampi
zi ert</w>
ul t</w>
ta king</w>
t lich</w>
si x</w>
le ben</w>
inn ing</w>
can did
W est</w>
S .</w>
201 1</w>
wor king</w>
wir t
th ous
sp i
re present
on a</w>
offi ci
n ame</w>
k re
h im
an ni
all erdings</w>
Mich ael</w>
1 2
situ ation</w>
ne t
m ember</w>
er ed</w>
c o</w>
Tu esday</w>
Jah res</w>
I tali
H il
G eh
Au strali
1 4</w>
sp ec
sch t</w>
r än
mit tel
loo k</w>
l en
l a</w>
h aus</w>
gi ven</w>
er weise</w>
ear ly</w>
ber t</w>
Wit h</w>
Ber lin</w>
w on</w>
ver s</w>
gew esen</w>
gegen über</w>
einf ach</w>
du e</w>
de li
T ran
S tim
Nation al</w>
Ge gen
w ent</w>
pl an</w>
is h
ex c
di gen</w>
de sig
d ent
as ked</w>
Wor ld</w>
Th em
St ad
S al
Poli ti
P ap
Gel d</w>
F ern
B est
A s
tran s
st af
so ur
p ot
ne te</w>
lan g
ist an</w>
ein mal</w>
consi der
bi g</w>
au t
R en
M us
-J ähri
fac e</w>
euro s</w>
an s
W hat</w>
Satur day</w>
st om
ro om</w>
re k
mei sten</w>
lo c
lit tle</w>
ck ed</w>
Stra ße</w>
P rot
D en
B ri
A n</w>
zi al
re al</w>
on -
g lob
en ces</w>
em and</w>
diff ic
de te</w>
b y
Mitarbei ter</w>
Jan u
F o
F l
1 6
wal t</w>
tic s</w>
sa m</w>
kno wn</w>
inv ol
ho sp
fin det</w>
f ig
b oo
at ten
D in
Ber ei
t ungen</w>
sicht lich</w>
sel ves</w>
se qu
i or</w>
d ou
comp le
201 4</w>
200 9</w>
un ser
soll ten</w>
of ten</w>
milit ary</w>
hin zu</w>
er inn
cla im
b ul
te i</w>
la w
inter national</w>
f ung</w>
cour t</w>
U -
T wit
St e
Sonn tag</w>
Leb ens
Da vi
schließ lich</w>
sch o
par ti
me as
li ght</w>
deci sion</w>
ag en
ac tion</w>
1 1</w>
thir d</w>
op en</w>
d om
campaig n</w>
auf ge
Ch ar
An gel
z w
w us
uns ere</w>
sh al
ro w</w>
ri ed</w>
n at
l an</w>
ir e</w>
ell schaft</w>
au er</w>
S k
H u
Fac eb
201 0</w>
zu g</w>
wirk lich</w>
vot e</w>
ter m</w>
sich er
re f
letz te</w>
j en
führ te</w>
f ass
e e</w>
au ßer
W as</w>
Ges etz
D an
ß t</w>
resu lt</w>
c aus
as soci
K ol
Is ra
19 8
w ater</w>
pre ss</w>
lon ger</w>
l ungen</w>
h öh
d in
cri sis</w>
auth orities</w>
all er</w>
M ili
Entschei dung</w>
Co un
201 6</w>
ä us
st ance</w>
spo kes
sp ar
so cial</w>
se en</w>
se chs</w>
s ön
r an</w>
pr o</w>
kön nten</w>
ger ade</w>
eben falls</w>
S ec
ye t</w>
w in</w>
s ha
pp ed</w>
ot s</w>
ent wick
d lich</w>
c al
W al
Vor sitz
S outh</w>
Russi an</w>
Pro f
In stitu
Gr und
v in
t ungs
sig ni
ini ti
beh ind</w>
U. S.</w>
pro gram
m eine</w>
j a</w>
im p
g s
clu b</w>
b ased</w>
ah n</w>
S om
Plat z</w>
Fra ge</w>
C ze
1 5
zo gen</w>
ver schie
tei lt</w>
spiel en</w>
po wer</w>
ot el</w>
le vel</w>
gen cy</w>
emplo ye
C an
z el
vi ce</w>
st en
si b
li cht</w>
h äl
er -
desc ri
an der</w>
ac ross</w>
Me hr
An fang</w>
är e</w>
ver l
t yp
st ag
s er</w>
s eines</w>
pa y</w>
ol e</w>
oc c
mor ning</w>
medi a</w>
il s</w>
fur ther</w>
fin al</w>
ei gen
de ta
Uni on</w>
N ot
Frank fur
1 7</w>
wie der
v eh
st im
ci dent</w>
an zu
ab ge
Mon day</w>
K op
A d
wh y</w>
stell te</w>
ro ad</w>
off ic
m ut
in er</w>
for t
fe st</w>
a h</w>
St ates</w>
P or
O k
Geschäf ts
Europ a</w>
y er</w>
stat t</w>
staf f</w>
par ed</w>
p unkt</w>
m ati
ie t</w>
fo ot
dar an</w>
ch tet</w>
ap er</w>
B rit
20 0</w>
1 7
1 6</w>
ver k
pro per
est er</w>
d ür
d ungen</w>
Mittwo ch</w>
oth ers</w>
organ iz
n ers</w>
ma king</w>
k illed</w>
k einen</w>
incre ase</w>
exp ected</w>
en z</w>
distri ct</w>
a den</w>
W ass
U kra
Th om
H ö
z war</w>
s qu
olog y</w>
mo ve</w>
li am
him self</w>
follo wing</w>
de mon
V ir
S ti
201 3</w>
200 7</w>
y ed</w>
secur ity</w>
sch l
r ing</w>
o t</w>
i denti
he alth</w>
g ni
ad dition</w>
V al
Mitg lie
G l
Di es</w>
1 4
&apos; m</w>
me ans</w>
li ve</w>
ei genen</w>
den ken</w>
c a</w>
Fe deral</w>
zieh en</w>
veh ic
v ement</w>
us ing</w>
sk i</w>
erklär t</w>
Proble m</w>
&apos; ve</w>
s ci
regi on</w>
glei ch
curr ent</w>
all s</w>
T o</w>
L ie
2 .
woll te</w>
u le</w>
tr itt</w>
ti eren</w>
t ur</w>
t em
si schen</w>
si eht</w>
ri sk</w>
on nen</w>
maj or</w>
ma in
ho urs</w>
ec tion</w>
di gung</w>
aus zu
S pe
M ög
H al
G rün
B riti
zei gen</w>
st ates</w>
se ason</w>
rec ent</w>
p e</w>
direc tor</w>
constru ction</w>
Verein ig
N A
Dien stag</w>
zah len</w>
ri cht</w>
r un
our t</w>
ne w
erg y</w>
ehem ali
W äh
N ieder
H el
Famili e</w>
Ex per
un dre
spre chen</w>
signi fic
o v
mit tl
lik ely</w>
le t</w>
inter nation
ad a</w>
W in
Ent wick
E le
Davi d</w>
B BC</w>
ri min
offici als</w>
k tion</w>
k ey</w>
ff t</w>
ff e</w>
Unter neh
T i
P unk
Flüchtlin ge</w>
z usammen
st et</w>
pro du
mög lich</w>
le ad</w>
fü gte</w>
f ree</w>
er ing</w>
contro l</w>
ac coun
We g</w>
S el
Pre mi
Mex ic
Le ague</w>
äh n
ver wen
tei lung</w>
s ent
re fer
on line</w>
li eb
gef unden</w>
expla ined</w>
euro pä
ent lich</w>
be deu
ag ed</w>
W ährend</w>
R olle</w>
Par is</w>
N at
M il
M et
Ge f
Bei spiel</w>
st ieg</w>
si t
part ment</w>
o ci
mehr ere</w>
is on</w>
ig keit</w>
en ough</w>
b and</w>
an aly
SP D</w>
K ur
D re
r ussi
pl ans</w>
li er</w>
c us</w>
b order</w>
Ges und
ru n</w>
ra ther</w>
m us</w>
ge sagt</w>
de ath</w>
ar ti
ag u
T V</w>
Pau l</w>
Män ner</w>
Faceb ook</w>
z ü
tur ned</w>
sa ying</w>
ev ent</w>
c are</w>
att emp
anst al
W is
T or
L am
K rie
Dem oc
Chri st
Ch in
C ourt</w>
Af gh
2 ,
z ö
sch w
sch lä
rou ght</w>
ori es</w>
ne cess
mo d
mei ster</w>
k amp
ein zi
e z</w>
e y
diffic ult</w>
bl ack</w>
best ä
aus en</w>
S i
M ut
L aut</w>
st ing</w>
r ates</w>
m ight</w>
lea der</w>
kl ar</w>
hei ten</w>
ev ening</w>
cu stom
conc ern
ch i
cer tain</w>
b asi
Russi a</w>
In form
Bür ger
ver ur
te chni
l ö
gen ann
g ent
est er
ess or</w>
cover ed</w>
ati ves</w>
a i</w>
S it
S ach
Beh örden</w>
Ass oci
8 0</w>
str y</w>
ss es</w>
sch wer</w>
mus ste</w>
h u
h t</w>
g st</w>
ell s</w>
di sp
Unter such
se h
issu e</w>
di tions</w>
de sp
cas es</w>
amp ;</w>
Sp it
Mon at</w>
M är
L ab
Ges prä
0 -
& amp;</w>
z er</w>
them selves</w>
stu dy</w>
stu dents</w>
resu l
peri od</w>
ol s</w>
gro und</w>
g eri
con su
ch ampi
ar ing</w>
an geb
ad minist
ab hän
R uss
M ün
Kan did
ör der
ver kauf
su g
st imm
s le
re ach
proble m</w>
offi cial</w>
n ap
hin ter</w>
el te</w>
con fir
clo se</w>
ch ter
at z
Wirt schafts
S an
K ö
u ally</w>
th i
re du
in ju
hand elt</w>
ell ing</w>
ei cht</w>
d one</w>
bo ard</w>
b rought</w>
ar t
Z wei
W ol
Re g
Par tei</w>
zu folge</w>
weiter hin</w>
su cht</w>
m b
l ands</w>
esti val</w>
ein igen</w>
eh er</w>
b rei
at eg
as k</w>
ar ds</w>
am o
P lan
O c
L au
1 3
zwei ten</w>
ph one</w>
ne ws</w>
es sion</w>
ein zu
de b
auf grund</w>
Mon tag</w>
B en
An aly
2 1</w>
1 3</w>
rü ck
ro le</w>
pri ce</w>
pl ant</w>
p ed</w>
li st</w>
it ten</w>
h om
g än
g rei
for eign</w>
f amili
ett bewer
denti al</w>
d u</w>
Nor th</w>
Mon aten</w>
Mein ung</w>
K ap
B ur
z one</w>
v öl
t lichen</w>
star ted</w>
sp ace</w>
si mp
sch wi
sch es</w>
re co
r en</w>
lo st</w>
lo ss</w>
k il
fü r
f ern
en a</w>
di ed</w>
dat a</w>
an im
amerikan ischen</w>
ah len</w>
ad s</w>
Unter stütz
St rei
Mon ate</w>
Ihr e</w>
Cze ch</w>
x im
suc cess
on al</w>
ob s</w>
lie gen</w>
inter est</w>
gesch lossen</w>
es sen</w>
ec u
c all</w>
ar ed</w>
ac tu
Sei te</w>
zeh n</w>
zah l</w>
w äh
k ten</w>
gener al</w>
em ents</w>
curr ently</w>
c y
blei ben</w>
ac ks</w>
Wei se</w>
Sam stag</w>
S pre
N u
K ir
H ouse</w>
Frankfur t</w>
F el
E ven</w>
Briti sh</w>
B S</w>
servi ces</w>
sch war
s st</w>
ph ot
k ar
in t</w>
g le</w>
ch ing</w>
br ing
V iel
M al
I de
G ei
D om
rei s</w>
re qu
h undre
gen heit</w>
for man
en ter
econom y</w>
did n</w>
di tional</w>
can not</w>
Ho ch
H aus
Be am
A pri
w are</w>
ul i</w>
st ab
pro b
priv ate</w>
ou th
ob wohl</w>
minist eri
inju red</w>
il ed</w>
i an</w>
g ir
f ran
experi ence</w>
de o</w>
Z iel</w>
P S
Inv est
wen ig</w>
vi a</w>
v ari
tra ff
spe cial</w>
ri eben</w>
posi tive</w>
o ft</w>
mög lich
l te</w>
k i
er fol
e ad</w>
do cum
b ad</w>
auf en</w>
Z ent
Thom as</w>
Kon trol
Joh n</w>
Apri l</w>
A le
wel t
si mil
s co
re qui
r o</w>
p as
ma chte</w>
li g</w>
hist ory</w>
er st
en ten</w>
cap ital</w>
b it</w>
al ität</w>
T im
Par tei
J uli</w>
B ericht</w>
An ge
19 7
äch lich</w>
ä ten</w>
up s</w>
un ds</w>
t ary</w>
rit t</w>
in es</w>
h äu
fe el</w>
er ungen</w>
en te</w>
c ast
bu d
Or t</w>
D ro
An dre
1 9</w>
musi c</w>
incre as
il le</w>
ha m</w>
gu e</w>
gen den</w>
gan gen</w>
for t</w>
con ditions</w>
ch ief</w>
bet on
be kommen</w>
a gement</w>
Sicher heit</w>
H en
F ren
wor ks</w>
su sp
ss ed</w>
spiel t</w>
spiel er</w>
sich er</w>
ru ch</w>
questi on</w>
qu e</w>
l d
iel t</w>
der zeit</w>
belie ve</w>
bec ame</w>
at ri
Wirt schaft</w>
Au ßen
vi du
u ten</w>
tr ot
su chen</w>
st ar</w>
pre si
ob ach
no thing</w>
ne ar</w>
ex tre
ess es</w>
de p
c ts</w>
bess er</w>
b au</w>
agre ement</w>
ad v
Zu kunft</w>
S itu
F er
0 ,
stan den</w>
s lo
re cht</w>
loo king</w>
kl ag
h ous
go al</w>
gehör t</w>
ge sehen</w>
g um
fall en</w>
di sa
ar re
V on</w>
S A</w>
Mit tel
Mark t</w>
K il
Ju ly</w>
Dur ch
rec ently</w>
play ers</w>
offi zi
mat ter</w>
k um
h under
h it</w>
f lu
cel eb
ari an</w>
ab o
S ome</w>
P la
H an
F rie
An t
ß nahmen</w>
we st
w äl
st ung</w>
re ason</w>
pres ent</w>
l er
for ce</w>
d le</w>
ci ally</w>
c ing</w>
beson dere</w>
b an</w>
ander s</w>
T our
Inter net</w>
H is</w>
G oo
Arbei t
4 5</w>
201 7</w>
tot al</w>
ste ad</w>
sch wer
ri chti
no w
mar k</w>
maj ority</w>
m al
lo se</w>
li es</w>
je den</w>
führ ung</w>
develop ment</w>
be sten</w>
al ong</w>
S ince</w>
P i
Ok tober</w>
Mar tin</w>
D ec
ä m
z ir
wel che</w>
week s</w>
wahr schein
vi sion</w>
sig n</w>
s ure</w>
p rü
li gh
la un
k ung</w>
in dem</w>
ho li
hei m</w>
g ern</w>
führ er</w>
fil m</w>
f ight</w>
ck ing</w>
arbei tet</w>
ab sol
V or</w>
Them a</w>
S on
Eng land</w>
ü t
z t</w>
wh ose</w>
re turn</w>
re st
re ch
oper ation</w>
on i
mit ted</w>
lin es</w>
ester day</w>
ell eicht</w>
e si
c r
be vor</w>
are as</w>
T age</w>
Pro gram
P ol
N amen</w>
Fran ce</w>
Americ a</w>
Af ri
wei ß</w>
ta x</w>
t liche</w>
s ung</w>
m on</w>
li ving</w>
er zäh
en ergy</w>
do ing</w>
con ne
av ail
W ach
St unden</w>
St and
K unden</w>
Ch ef</w>
C ha
ti v</w>
resear ch</w>
j ahr</w>
indi vidu
get ö
ent schei
b ung</w>
M es
M erk
F äl
y ment</w>
w th</w>
recei ved</w>
play ed</w>
pl om
man u
ke ep</w>
h an
e duc
deut lich</w>
co st</w>
ci ti
al o
ag er</w>
Wo chen</w>
V en
Be g
Afgh an
ür lich</w>
we gung</w>
we ch
th an
sup por
se par
previ ous</w>
per forman
or ig
m oment</w>
lich es</w>
ha f
h or
et z</w>
employe es</w>
d lichen</w>
ab end</w>
a de
Unterstütz ung</w>
Situ ation</w>
Par lam
K ra
Inform ationen</w>
Fren ch</w>
Cent ral</w>
viel en</w>
sag ten</w>
pro cess</w>
necess ary</w>
ma in</w>
im pro
i ci
hosp ital</w>
ge geben</w>
ge führt</w>
for d</w>
f -
deut schen</w>
ct ors</w>
blei bt</w>
ab li
a ver
Vereinig ten</w>
S ie
w es
te chn
t in
ss en
ro ati
rec ord</w>
parti cip
mun i
mob ili
m ein
le y</w>
gest ern</w>
f ei
f ar
every thing</w>
de ten</w>
d ate</w>
c ir
br it
b ook</w>
ack ed</w>
Zei t
Vi er
Spiel er</w>
Oc tober</w>
M ei
K ör
K ul
H ung
H au
Eng li
Dem o
D a</w>
B al
wei sen</w>
t op
sum mer</w>
stell er</w>
sp ek
sch ung</w>
proble ms</w>
poli cy</w>
per sön
m ul
indu stry</w>
gri ff</w>
g nis</w>
dest ens</w>
Kon z
E is
Be sch
äch st</w>
vot ers</w>
vi cti
t an
si l
repor ts</w>
le ar
kon nten</w>
im medi
gen au</w>
ful l</w>
e fore</w>
de fin
chil d</w>
c tor</w>
ak tu
Zent r
Stad t
Rich tung</w>
P a
D ru
B M
1 .</w>
zi eren</w>
to ur
r aten</w>
l ate</w>
kön ne</w>
it ing</w>
hig her</w>
gro wth</w>
gesam t</w>
g as</w>
fiel d</w>
ci vi
c a
brit anni
b all
avail able</w>
av an
B ern
ä he</w>
zah l
wi ssen</w>
verletz t</w>
sam m
rot e</w>
off er</w>
mä ß
k ul
hr en</w>
h aup
gen de</w>
est im
contin ue</w>
c lim
be zeich
as sa
an ischen</w>
ali si
M ot
M er
L ö
Kö ni
we g</w>
ti schen</w>
spre ch
rau m</w>
ord in
mo ved</w>
m es</w>
in tel
in st
getö tet</w>
ch air
b ig
ach er</w>
a vo
O pf
N acht</w>
M el
In di
G ericht</w>
0 .
wirt schaft
tra de</w>
qu ali
me t</w>
lä sst</w>
lea ve</w>
fri ends</w>
f and</w>
en ded</w>
dec lar
T er
Sta at</w>
M ac
Is lam
Groß britanni
Fin an
Fahr zeu
F ar
E ig
vi r
unser er</w>
star k</w>
schein t</w>
sch lag</w>
person al</w>
n om
l ong
kon trol
it self</w>
go ti
es pe
ear lier</w>
dor f</w>
c li
ach ie
ac tivi
Wah l</w>
Vir g
S im
S eit</w>
B eri
-Jähri ge</w>
- -</w>
y si
te st</w>
st on</w>
simil ar</w>
p le</w>
ot en</w>
ne l</w>
ga ve</w>
er le
ch it
T ür
Sicher heits
Präsi dent
Pe ter</w>
Bil d</w>
200 6</w>
wh ite</w>
w ander
w and
vi ct
ur ch</w>
tr ying</w>
tei len</w>
s ent</w>
rec or
nee ds</w>
n t
mat ch</w>
lo ve</w>
li gen
kehr s
k riti
it te</w>
ge kommen</w>
fo ur
fir e</w>
espe cially</w>
elec tions</w>
el ess</w>
co sts</w>
co m</w>
can c
au ran
au di
ak s</w>
Wh ile</w>
Rich ter</w>
Präsi denten</w>
P ubli
Ma y</w>
In du
Ergeb nis</w>
Associ ation</w>
9 0</w>
wichti g</w>
wer s</w>
w ns</w>
v a</w>
th ought</w>
rema in</w>
pot enti
ide a</w>
i si
f rie
et te</w>
en ding</w>
em o
b al
att ack</w>
Tei l
Russ land</w>
R h
Projek t</w>
Lan des</w>
H ol
Gr und</w>
Go vern
B ad</w>
änder t</w>
y ers</w>
w ood</w>
schlie ßen</w>
pre v
op s</w>
ne ten</w>
n ern</w>
mark ets</w>
jen igen</w>
ing ly</w>
hop e</w>
ge ord
con clu
commun ity</w>
bedeu tet</w>
an z</w>
ad ing</w>
W eb
Unterneh men
Poli ce</w>
P ak
I ra
E m
D u
An ti
An gaben</w>
zun eh
wahrschein lich</w>
t ol
st rei
st ein</w>
sch ri
sa w</w>
re cht
ra di
lie ß</w>
lie f
k el</w>
gu te</w>
ge sp
ecu tive</w>
custom ers</w>
ber eit</w>
W il
W ettbewer
Th e
St ep
K r
G eri
F ot
Bes u
öffent lichen</w>
z ens</w>
us h
us es</w>
st att
sex u
se cre
sch ätz
provi ded</w>
plann ed</w>
par liam
op ini
manu fac
li eren</w>
erwar tet</w>
de st</w>
ch er
ab zu
Län der</w>
K riti
K or
Geb äu
F rü
Europ ä
D aten</w>
3 00</w>
än de</w>
weiter en</w>
v ely</w>
sti ce</w>
se ven</w>
provi de</w>
performan ce</w>
oll ars</w>
hel fen</w>
fe deral</w>
f ood</w>
cent re</w>
c in
b riti
associ ation</w>
ak ing</w>
Ver k
Stu die</w>
Sch la
Ri si
N o</w>
Mut ter</w>
Lam b</w>
H a
Au to</w>
3 .
wor kers</w>
spro chen</w>
seri es</w>
schn ell</w>
sch au
ri ghts</w>
respon sible</w>
pur ch
particul arly</w>
p et
o l</w>
invol ved</w>
h on
fü l
ex ist
beg inning</w>
af ter
W aff
Ver tei
Ver bin
V o
U m</w>
Stu denten</w>
Me ter</w>
Le hr
Isra el</w>
H I
Er do
E U-
B ul
versu cht</w>
st or
st opp
st -
resul ts</w>
re ve
p assi
nei gh
mer k
kün f
je der</w>
is mus</w>
fel d</w>
an ten</w>
R ah
Pri v
Per son</w>
Olymp ic</w>
No w</w>
Jun e</w>
J ohn
Brit ain</w>
B rü
Afghan istan</w>
str on
so zi
sig n
si e
si chti
ra ce</w>
nu tz
min ute</w>
inn er
indi c
ih res</w>
get ting</w>
forder t</w>
for ward</w>
ck er</w>
au m</w>
at tra
ar beit</w>
ant ly</w>
ani sche</w>
Z in
U K</w>
R ob
Nach ri
N ähe</w>
C up</w>
C S
A si
& #
&# 9
stand ing</w>
qu ite</w>
particul ar</w>
p ati
ne g
in j
en h
an e</w>
ah ead</w>
Ver gleich</w>
Ukra ine</w>
Poli zei
N ord
In nen
I h
H oll
Ges ellschaft</w>
Flug zeu
D el
Al l</w>
A ir
äd chen</w>
ä um
y esterday</w>
w rote</w>
w n
un be
tre ffen</w>
ter min
sho t</w>
s .</w>
ome ter</w>
mat eri
le ge</w>
j ob</w>
es sion
er sch
ec tive</w>
di gte</w>
de al</w>
chang es</w>
beson ders</w>
Zei tung</w>
Z u</w>
Republi kan
Proble me</w>
K ü
Institu te</w>
I ran</w>
Ge wer
Er fol
D et
D eb
2 4</w>
y l
viol ence</w>
ver antwor
ter ms</w>
schaff en</w>
s ü
rele ased</w>
new sp
ne goti
glei chen</w>
g rün
f al
est abli
es n</w>
el a</w>
ben ef
beh aup
actu ally</w>
V ic
Stre et</w>
Jun i</w>
Er fahr
z ep
wh ole</w>
traff ic</w>
su pp
st ör
si tion</w>
setz ung</w>
r at</w>
p ing</w>
n a
li mit
investig ation</w>
i scher</w>
ei ght</w>
don esi
dar unter</w>
amerikan ische</w>
T ex
S in
Mann schaft</w>
J ap
Hö he</w>
E mp
De z
Ch anc
A -
Ä r
z us
w ahl</w>
str ong</w>
pro mis
p ic
op port
mö chte</w>
m ar</w>
gr en
gel n</w>
ge worden</w>
form ed</w>
f unk
es sen
er zi
dam als</w>
ck et</w>
c ally</w>
bra chte</w>
be ein
ation s
as h</w>
W er</w>
T sch
Rei he</w>
P il
zei tig</w>
y le</w>
ver fol
ti erte</w>
sy st
sta at
se ek
se a</w>
r or
orig in
organ is
min destens</w>
manufac tur
ie gen</w>
g -
fi g</w>
einzi ge</w>
cri tic
co ach</w>
be c</w>
al -
Par t
M ob
Kranken haus</w>
Dies er</w>
D ist
-jähri ge</w>
un ge</w>
tra ining</w>
str eng
si eben</w>
rema ins</w>
quar ter</w>
manag er</w>
li ert</w>
lea ders</w>
ill ing</w>
hei ßt</w>
gro ups</w>
ge ts</w>
d ungs
comp la
bie ten</w>
b ut
Twit ter</w>
Pu tin</w>
Ko sten</w>
K en
K a
Din ge</w>
Bay ern</w>
Ak ti
äu ß
z te</w>
wi de</w>
sur pri
su per
ro r</w>
ri cht
produc ts</w>
pr in
play er</w>
out side</w>
o -
mark t</w>
m als</w>
k ü
k amen</w>
inner halb</w>
in te
in stitu
ho ch
hist or
hal t</w>
ge setzt</w>
fer ence</w>
di tion
d ollars</w>
com mod
b loo
b ir
Tel ef
T agen</w>
Merk el</w>
Im mobili
D or
C ity</w>
7 0</w>
3 5</w>
19 6
y or</w>
vi ron
ti gte</w>
ten s</w>
t ation</w>
sto p</w>
re ag
proper ty</w>
prob ably</w>
politi schen</w>
oth eli
ot t
kommen den</w>
he av
gan zen</w>
cri min
ci a</w>
ch all
caus ed</w>
candid ate</w>
an ge</w>
allo wed</w>
ag ne</w>
ac cident</w>
Staats an
R a
Medi en</w>
Kin der
F est
F ed</w>
3 ,
x es</w>
ter e</w>
tei li
sy ch
st ation</w>
shal b</w>
s se
r ing
l ern</w>
ic ro
es se</w>
ein ander</w>
e qui
de shalb</w>
be steht</w>
ac commod
S ter
S port
J ournal
Inter national</w>
Entwick lung</w>
Dem on
Be zieh
B or
Ab geord
7 5</w>
t är
st ers</w>
sib ility</w>
schl uss</w>
per s</w>
nah m</w>
mo der
min utes</w>
man agement</w>
m illi
le h
k ind</w>
hu ge</w>
gew äh
gele gt</w>
fra gen</w>
f em
competi tion</w>
chang ed</w>
bis her</w>
aver age</w>
ag no
Ver anstal
S um
Pe ople</w>
Goo gle</w>
4 0
ör de</w>
zent r
woh ner</w>
trä ge</w>
tri ed</w>
tre at
st age</w>
sho ot
sa che</w>
ri ch</w>
rei ch
ma kes</w>
m mt</w>
long -
l ab
hel d</w>
gen u
en ger</w>
ding ungen</w>
den e</w>
demo krati
cer tain
ats ächlich</w>
as k
T rot
T it
R adi
Pap u
Mög lichkeit</w>
M ül
J er
F rom</w>
Dez ember</w>
Dec ember</w>
D r.</w>
D en</w>
Bar cel
B li
2 3</w>
ä ft</w>
zwei te</w>
z es</w>
ver di
ther efore</w>
s om
ro und</w>
mo vement</w>
mit t
klär ung</w>
inter est
i ed</w>
hum an</w>
exp lo
er ken
eb ru
dru ck</w>
dr in
do m</w>
do esn</w>
ct ure</w>
con stitu
be sitz
ad dre
Wäh ler</w>
Vol ks
Spre cher</w>
Sch w
S ing
Organ isation</w>
Ne ws</w>
Mitglie der</w>
Her r</w>
F C</w>
Democ ra
Am erikan
z a</w>
ver tre
u fen</w>
spe e
s mo
s ales</w>
rupp en</w>
regi onal</w>
re gar
par ties</w>
op e</w>
on d</w>
kämp fen</w>
issu es</w>
f le
en sive</w>
d ä
ci es</w>
bud get</w>
be gan
ah l
St euer
Sch au
Ju gend
Ges etz</w>
E ast</w>
Dru ck</w>
Deut sche</w>
Au stri
2 2</w>
öh n
wal tung</w>
trot z</w>
ti s</w>
tal k</w>
st ran
pro ce
press ure</w>
pa id</w>
p h</w>
met res</w>
ld n</w>
kom p
inde pen
igran ts</w>
h an</w>
foot ball</w>
erh öh
e th
d ler</w>
c ement</w>
Th ese</w>
S old
S ha
M un
L y
Großbritanni en</w>
F ebru
En erg
Ein ige</w>
Be zir
Be wegung</w>
2 7</w>
versu chen</w>
ver ein
un ded</w>
rup tion</w>
ri g
plac es</w>
or ts</w>
li gi
in o</w>
h old</w>
h eu
größ te</w>
g yp
fran zö
anti -
ali tion</w>
ack er</w>
Wol f
To d</w>
No t</w>
Min uten</w>
L age</w>
G al
äus er</w>
wer t</w>
vol l</w>
to wards</w>
st ory</w>
ser ved</w>
se ems</w>
rie f</w>
reco gni
re as
qui ck
presi dential</w>
pres sion</w>
p ie
ig ung</w>
h our</w>
f äh
er er</w>
ent ed</w>
dr än
di um</w>
desp ite</w>
coun cil</w>
best os</w>
beg an</w>
b ald</w>
auf zu
al ed</w>
ab ility</w>
Ver fass
Sch war
Mexic o</w>
M y</w>
La w
I A
D ie
200 5</w>
2 6</w>
än dern</w>
äl fte</w>
z in
wor ked</w>
w agen</w>
vi elleicht</w>
t ou
t om
st am
sch rieb</w>
pri ces</w>
pe l</w>
os au
me an
gew innen</w>
gef ähr
g ames</w>
f igh
cre di
clo sed</w>
car e
c au
ath le
an gen</w>
Z ahl</w>
Wis sen
W oh
Ver letz
U N
Te chn
So zial
Regi on</w>
Regi erungs
H off
Gren ze</w>
Barcel ona</w>
B lo
vir tu
thous ands</w>
stra tion</w>
sho ws</w>
sho wed</w>
sch ütz
ni e
nee ded</w>
mo ther</w>
m ag
län di
lar gest</w>
inter view</w>
ing -
hör en</w>
fäl le</w>
every one</w>
eff ect</w>
bar en</w>
an -
administ ration</w>
abo ve</w>
Wo chen
Virg ini
Universi tät</w>
T at
St ell
St at
Sch ü
Ri o</w>
M and
H or
Ge win
Ge walt</w>
Bro wn</w>
Australi a</w>
we st</w>
ut z</w>
suc cess</w>
run ning</w>
rei chen</w>
publi shed</w>
pf lich
oo t</w>
ol a</w>
mo del</w>
in tro
größ ten</w>
glob al</w>
glau ben</w>
g ruppe</w>
for ced</w>
f ru
f en
demo cra
com mon</w>
bli ck</w>
avan au
as n</w>
as es</w>
Ver tre
St .</w>
S ol
R est
Prei s</w>
Par ty</w>
Opf er</w>
Ne w
M ad
K avanau
Govern ment</w>
Erdo gan</w>
B ü
Al ter</w>
&apos; ll</w>
y al</w>
vi deo</w>
ver tei
ter ror
sy l
ste p</w>
signific ant</w>
seri ous</w>
sa f
reach ed</w>
re duc
ra d</w>
quick ly</w>
ph ysi
o w</w>
ne arly</w>
mi schen</w>
lich keiten</w>
lan gen</w>
kl eine</w>
invest ment</w>
in si
g lichen</w>
e qu
c ars</w>
be obach
ar gum
all ein</w>
Prof essor</w>
Politi k</w>
Musi k</w>
Man ch
M ädchen</w>
K i
In donesi
F eh
C lu
0 s</w>
Ö ff
vict ory</w>
ut y</w>
ung sp
te m</w>
sur v
st ep
sol che</w>
pra cti
op ing</w>
lig a</w>
j ournal
j ects</w>
it ali
her r
er ie</w>
en ge</w>
em er
di re
descri bed</w>
dar f</w>
consider ed</w>
con tri
ac tions</w>
Th en</w>
Que bec</w>
P lan</w>
L ou
Kran k
K ind</w>
K at
Ergeb nisse</w>
Democra tic</w>
C N
Ber u
An geb
2 3
veröffent licht</w>
vehic les</w>
ter in</w>
t able</w>
stre et</w>
some one</w>
sig ned</w>
sh or
sec ut
re s
program me</w>
pro gra
muni cip
mit tel</w>
m assi
lat est</w>
inf lu
immedi ately</w>
gen s</w>
fra stru
ei ther</w>
de z</w>
ci ans</w>
c tions</w>
br ing</w>
be teili
at ory</w>
ad vi
acc used</w>
Wh ite</w>
Virgini a</w>
Ver kehrs
Um frage</w>
St o
S or
S il
S eine</w>
Republi can</w>
K un
Coun cil</w>
Al so</w>
zu vor</w>
tur al</w>
tion ed</w>
sug gest
ru les</w>
opini on</w>
mob ile</w>
krä fte</w>
ins gesamt</w>
inn t</w>
in -
ie ten</w>
hin aus</w>
h il
errei chen</w>
d rei
ch ers</w>
c ause</w>
c at
Sta at
Scot land</w>
R y
Län dern</w>
Kontrol le</w>
Kamp f</w>
K u
H ause</w>
Gener al</w>
Dist ri
D enn</w>
C al
4 .
2 9</w>
2 5
ün st
x i
war um</w>
wach sen
tra vel</w>
tra in</w>
sti g</w>
so on</w>
sei ts</w>
schi ed</w>
re al
re -
ori a</w>
no on</w>
mit tag</w>
k tions
ful ly</w>
fa ther</w>
ex ecutive</w>
er öff
ent fern
di ge</w>
cl ass</w>
bur ger</w>
best imm
b us</w>
b om
ander em</w>
Vorsitz ende</w>
Re chts
P rin
G ol
D at
Berei ch</w>
A D
ätz e</w>
wi fe</w>
wer k</w>
we g
ver sich
ver fü
th y</w>
t ö
stra ße</w>
si sche</w>
s wi
par ents</w>
on to</w>
n a</w>
meas ures</w>
m and
lei cht</w>
k aum</w>
incre ased</w>
in sur
fi c</w>
f y</w>
eu er</w>
et et</w>
com pared</w>
b it
att acks</w>
an i</w>
Su per
Sp ani
Sa ison</w>
Nation al
Li ber
L ig
K ri
I hr</w>
Ho w</w>
H ot
Bl ack</w>
Ab end</w>
tw are</w>
thous and</w>
t aus
so wohl</w>
si onen</w>
schn it
rei ben</w>
re publi
re ach</w>
pp en</w>
ou ver
ne u</w>
m ein</w>
k or
f ell</w>
er lau
en viron
eben so</w>
dri ver</w>
de ck
dar in</w>
claim s</w>
car ried</w>
ban ks</w>
at ure</w>
arre sted</w>
W at
Ver hand
Sch ritt</w>
Mehr heit</w>
Ma i</w>
Janu ary</w>
H älfte</w>
H um
G lei
Fil m</w>
7 00</w>
unterstütz en</w>
st ic</w>
sp richt</w>
re a</w>
prä sen
po st</w>
neh mer</w>
mo sp
ment al</w>
li ves</w>
let ely</w>
la di
j ün
happ y</w>
europä ischen</w>
errei cht</w>
er e
ehemali ge</w>
eh en</w>
declar ed</w>
comp letely</w>
char ge</w>
ch em
be tra
b ack
as yl
al leg
a il</w>
Tra iner</w>
S an</w>
Pri me</w>
O per
Mus li
L ar
Kavanau gh</w>
K rise</w>
H and</w>
Gener al
F ur
F unk
Chin ese</w>
A ff
&apos; d</w>
tel evi
stell ten</w>
spra ch</w>
sor gt</w>
simp ly</w>
schwi eri
pa ar</w>
not wen
k tionen</w>
h of</w>
frü h
f elt</w>
exp ec
er a</w>
en ni
deut sche</w>
deci ded</w>
commun ic
champi on</w>
amo unt</w>
Wass er</w>
Viel e</w>
Sold aten</w>
Sel bst
Sch wi
Sch i
R ou
R ad
Priv at
PS G</w>
P as
Mül ler</w>
M r
Geor g</w>
For scher</w>
Beh and
A ra
20 00</w>
ü b
wor ds</w>
wh om</w>
us sion</w>
success ful</w>
sol di
setz te</w>
sci enti
sa h</w>
s weise</w>
rek tor</w>
re gel
p ut
ni ed
nap p</w>
le ague</w>
haup t</w>
gan ze</w>
evi dence</w>
eri ka</w>
el ten</w>
eigen e</w>
educ ation</w>
e hr
confir med</w>
char ac
ass en
agen cy</w>
aga z
ab ri
W ert</w>
U l
Tre ffen</w>
Sch ule</w>
S ar
Mili tär
Kandid aten</w>
Ide e</w>
Frank reich</w>
F ach
Er d
201 8</w>
200 4</w>
ym n
w on
u el</w>
ta kt</w>
t un
t end</w>
t ac
so f
sh are</w>
sch ef</w>
re ly</w>
press ed</w>
nor mal</w>
ni mmt</w>
mög lichen</w>
le ading</w>
le -
kur z</w>
ish ed</w>
il t</w>
ik o</w>
her vor
happ ened</w>
for mi
expla ins</w>
disa p
ch s
buil t</w>
berich tet</w>
acc ess</w>
Syri a</w>
S ieg</w>
Punk te</w>
Premi er
P ati
Mo d
Ma ßnahmen</w>
G au
Dis k
Bus h</w>
B ahn
zus ätz
ver ti
ven tion</w>
tz e</w>
tr on
ter en</w>
te xt</w>
t au
stän dig</w>
ri d</w>
prof ession
potenti al</w>
por ts</w>
politi k</w>
pla ying</w>
p il
ot e</w>
or der
op ened</w>
mit tee</w>
m einer</w>
k in
ins besondere</w>
g sten</w>
ei m
demon str
citi zens</w>
chair man</w>
c le</w>
bau en</w>
al though</w>
accoun t</w>
T wo</w>
Sy stem</w>
Stra f
Sec ur
Sch wei
N a
M any</w>
Kin dern</w>
Janu ar</w>
I I</w>
Gro up</w>
Fra gen</w>
Fir ma</w>
F A</w>
E d
B ran
2 9
2 -
0 ,000</w>
vel s</w>
tei le</w>
sich ts</w>
sel l</w>
newsp aper</w>
me ter</w>
lan gu
genu g</w>
en ced</w>
elec tri
di e
de ad</w>
da her</w>
cor e</w>
comp u
cas h</w>
asyl um</w>
ari a</w>
al one</w>
after noon</w>
Prot est
Olymp i
M oment</w>
L os</w>
L ast</w>
G old
F B
B ör
A pp
200 3</w>
wo bei</w>
wieder hol
wi der
visi t</w>
verl oren</w>
ut t
th us</w>
st ur
spre ad</w>
spokes man</w>
sen se</w>
rei che</w>
pro pos
n y</w>
mor gen</w>
ministeri um</w>
m ist
m .</w>
l ing
gew öhn
en zen</w>
di sk
d t</w>
contra ct</w>
con duc
aff ected</w>
Vi de
Tim es</w>
Sp ra
Ro bert</w>
Po st</w>
Men ge</w>
Kom ment
Da bei</w>
An zahl</w>
An gst</w>
200 1</w>
zun ächst</w>
we b
völ k
verwen det</w>
tä r</w>
th o
ta kes</w>
st es</w>
st ated</w>
sit z</w>
sh ort</w>
se um</w>
re pe
politi sche</w>
ogra ph
offic ers</w>
n ö
ligen ce</w>
j obs</w>
issu ed</w>
inclu de</w>
im mt</w>
ig ration</w>
ig ar
glau be</w>
d ar</w>
commit tee</w>
be wus
any thing</w>
al te</w>
W ieder
Sch mid
I S
Hil fe</w>
H af
Gren z
Geor ge</w>
E -
Do kum
Chri sti
über ra
Ä n
wech sel
vi er
vi ces</w>
ver lassen</w>
val ue</w>
tig keit</w>
ss ing</w>
sol ution</w>
ser ve</w>
sat z
s la
ri eb
previ ously</w>
p at
lo k
k t
internation alen</w>
ic ally</w>
i zi
häl t</w>
gew al
g ran
for ms</w>
for ces</w>
fli ght</w>
f lä
eff orts</w>
bre chen</w>
be au
V ater</w>
Ni cht</w>
Mann ing</w>
K li
Jahr zeh
Fahr er</w>
Dam it</w>
wor th</w>
week end</w>
tru e</w>
tr a</w>
techn ology</w>
sur vi
spe zi
sch lu
popul ar</w>
plann ing</w>
op ening</w>
occ up
h ang</w>
fin ally</w>
el s
der ungen</w>
co ver</w>
c ut</w>
bor n</w>
bei de</w>
al er</w>
Wah len</w>
Rom an</w>
Minist ry</w>
Lan des
H under
Exper ten</w>
Com mittee</w>
- F
zü glich</w>
zurück zu
sti ge</w>
st elle</w>
saf ety</w>
s a</w>
russi schen</w>
requi red</w>
re sc
poin ted</w>
per f
on ed</w>
o v</w>
n ungen</w>
me l</w>
manag ed</w>
m einen</w>
li e</w>
kauf en</w>
k ürz
j emand</w>
j e</w>
ho hen</w>
h otel</w>
geb aut</w>
enti re</w>
dru g</w>
cent ral</w>
be findet</w>
av ing</w>
and al</w>
ad ditional</w>
ac i
Untersuch ung</w>
T err
Re cht</w>
Pre sse
Off ice</w>
Mär z</w>
Men schen
K er
Itali an</w>
In de
I B
Haupt stadt</w>
H y
Gewer k
Fir men</w>
Engli sh</w>
E ar
Angel a</w>
öffent liche</w>
äl t</w>
we der</w>
we ap
w illi
vi c</w>
un ity</w>
trä gt</w>
tiv ely</w>
suff ered</w>
spe ed</w>
shoot ing</w>
se cu
rei sen</w>
re ck
outh ern</w>
organ isation</w>
mes sage</w>
m ung</w>
k napp</w>
j ähr
is es</w>
fic ation</w>
fe el
famili es</w>
f lü
do ctors</w>
d opp
ch ance</w>
c tic
c ru
ati v</w>
al ing</w>
Tsch ech
St äd
Ser bi
Poli z
Mun ich</w>
H otel</w>
C el
B y</w>
Ar me
versi ty</w>
t schaft</w>
s un
prot ection</w>
plat z</w>
oo ds</w>
ologi cal</w>
ob en</w>
ne ben</w>
nat ürlich</w>
mü s
m y
kur z
ie ß</w>
gel ö
gehör en</w>
ex ten
deut ung</w>
civi l</w>
canc er</w>
c ard</w>
bring t</w>
b es</w>
außer dem</w>
ag ing</w>
V -
Sch l
Sach e</w>
S wi
S ek
Präsident schafts
Ob wohl</w>
Jo se
H än
Gemein de</w>
Geh eim
Champi ons</w>
Andre w</w>
Ale x
3 1</w>
über haupt</w>
zeich net</w>
zei t
wor fen</w>
w all</w>
ver bess
unter nehmen</w>
sta y</w>
ss el
sing le</w>
qu ality</w>
produc tion</w>
pos e</w>
p ite</w>
om en</w>
n äh
li an</w>
kon zent
k ol
je des</w>
ir gend
in spi
hom es</w>
he art</w>
go es</w>
gewäh lt</w>
gesch lagen</w>
er y</w>
ep tion</w>
emplo yment</w>
dra mati
dem and
de gre
dar um</w>
cul ture</w>
cor por
c ans</w>
bi etet</w>
besch äf
ber u
b ür
at er
as bestos</w>
agre ed</w>
Un ter</w>
Re ak
M ü
G az
Führ ung</w>
Fir st</w>
Des pite</w>
De partment</w>
D rit
4 ,
. m.</w>
verur sa
uns eren</w>
t ons</w>
sho p</w>
rat s</w>
par ts</w>
mis sion
m ern</w>
lei st
l ack</w>
j unge</w>
indu stri
in side</w>
ig keiten</w>
fri end</w>
fa iled</w>
exper ts</w>
eu ern</w>
eh m
d or</w>
cre ated</w>
comple te</w>
bo t</w>
berich tete</w>
Z um</w>
Ven us</w>
Sp ain</w>
Nach dem</w>
Mor gan</w>
Mar ch</w>
Kap it
H ier</w>
El tern</w>
2 8
ß er</w>
woll ten</w>
w ell
w ahlen</w>
ver hin
ur en</w>
ti sche</w>
televi sion</w>
st it
spee ch</w>
sen ior</w>
s ons</w>
s cre
resi dents</w>
ra m
par k</w>
om a</w>
o il</w>
mul ti
me et</w>
lin e-
ke ep
ig es</w>
h inter
gh ter</w>
ge gangen</w>
g old</w>
g ilt</w>
f ans</w>
ex tra
ent ary</w>
d ance</w>
br and</w>
blo ck
b are</w>
ati c</w>
at ures</w>
at e
as y</w>
ar m</w>
ar en</w>
and -
al ist</w>
Wach st
Sü d
St art</w>
Sch we
S port</w>
Re gen
Po sition</w>
N ic
Lu ft
Kamp agne</w>
Indu stri
Gesund heits
Gebäu de</w>
Er klärung</w>
Ein zel
C ru
Au s</w>
Anti -
An sicht</w>
Am ts
wei ght</w>
ver stän
utt gar
treat ment</w>
stän de</w>
stimm ung</w>
soldi ers</w>
so li
sec tor</w>
s au
möglich erweise</w>
mo un
l le</w>
l auf</w>
k rie
in stead</w>
hö ch
häu fig</w>
ho ben</w>
her aus
h y
gu ten</w>
ge tro
ge ber</w>
funk tion
for dern</w>
el f</w>
de fe
continu ed</w>
cont act</w>
com men
candid ates</w>
bo ur
as p
app lic
abhän gi
Ver antwor
St uttgar
Sec re
R ot
O f</w>
Nach bar
Fran k</w>
Di rec
D ou
Beg inn</w>
zei gte</w>
z ung</w>
wor d</w>
vol un
ter -
ta ins</w>
sub ject</w>
st ol
sp on
some times</w>
ran ge</w>
op position</w>
medi cal</w>
hand s</w>
h aus
gel ei
frü her</w>
for ni
fo cus</w>
f s</w>
ex change</w>
et t</w>
di plom
de termin
cri me</w>
con fi
avo id</w>
ap par
ali forni
Zeit punkt</w>
W ahr
Ver fü
St ar
So ci
S eiten</w>
M ag
L ad
F estival</w>
Erfol g</w>
Er mittl
Ein satz</w>
Con gress</w>
Com mission</w>
Bu ch</w>
Be deutung</w>
A gency</w>
6 .
2 8</w>
zi g</w>
zi erung</w>
zah lt</w>
vor zu
tra ck</w>
scho ols</w>
sch te</w>
rema ined</w>
krä f
imp act</w>
hi on</w>
g g
flo or</w>
el e</w>
e di
dire kt</w>
cle arly</w>
ch ine
c is
as su
ander er</w>
am i</w>
al low</w>
a war
a des</w>
Zentr al
Sp an
Rich ard</w>
R atz
P en
N ur</w>
M ik
L it
Journal isten</w>
Jap an</w>
J etzt</w>
Holl y
H ere</w>
C i
Bli ck</w>
Au ßer
Au gen</w>
Americ ans</w>
5 .
4 6</w>
z ing</w>
veröffent lich
tu res</w>
st off
sp r
sour ces</w>
s l
questi ons</w>
present ed</w>
plac ed</w>
p ass</w>
n al</w>
mö chten</w>
ment ed</w>
li a</w>
le ts</w>
l aufen</w>
in ess</w>
häl t
hundre d</w>
g reich</w>
ex am
entfern t</w>
em als</w>
e i</w>
dom in
di se
develop ed</w>
co -
cl assi
ch urch</w>
bloo d</w>
beton te</w>
b un
ac ted</w>
Tru mp
Sch n
Program m</w>
P an
NA T
N utz
In s
I l
Gl as
C amer
B av
6 ,
5 -
0 .000</w>
zieh t</w>
z ul
th ers</w>
t wi
st äd
spor ts</w>
sp ann
schie den</w>
ot a</w>
o ber
lie f</w>
la y</w>
k ran
k ei
ju d
je wei
in i</w>
im ple
il legal</w>
he ard</w>
happ en</w>
h eri
gre s
ger ung</w>
ge zogen</w>
fre qu
fig ures</w>
ein schließlich</w>
do wn
die jenigen</w>
ch ten
buil d</w>
bro ad
b ran
ation al</w>
any one</w>
am p</w>
accommod ation</w>
ab ili
Syri en</w>
Spiel en</w>
Republikan er</w>
Ratz inger</w>
R ett
Papu a</w>
N etz
Mi d
Ma z
Kom mun
K e
Inter view</w>
Famili en</w>
Aut os</w>
ä ste</w>
zo g</w>
un ver
tsch ech
tiv ity</w>
ti ven</w>
th le
ter t</w>
tem per
s burg</w>
rel l</w>
re ad</w>
r ying</w>
pro mot
practi ce</w>
po wer
p ack
mot or
ma xim
m ing</w>
lie b</w>
leg is
konzent ri
k ept</w>
it äten</w>
inclu ded</w>
i erung</w>
i erte</w>
höh ung</w>
hunder t</w>
f el</w>
ben ö
bei spiel
aut om
ass er
as se
arri ved</w>
ac y</w>
Zusammen arbeit</w>
Y ou
W ür
Terr or
T ro
Re public</w>
O ur</w>
L auf
Frü h
Dies es</w>
D -
Cent er</w>
C a
Bürger meister</w>
Außer dem</w>
4 8</w>
4 00</w>
ö ße</w>
Öff ent
v an
trau m</w>
tr en
t atsächlich</w>
stu di
s old</w>
s al
ro ff
rei se</w>
rei bt</w>
re ality</w>
ouver ne
ol der</w>
nor m
me d
loo ked</w>
la p
kün digt</w>
kl einen</w>
im e</w>
ic a</w>
gesch i
ger ufen</w>
geb ung</w>
follo wed</w>
f is
er seits</w>
en or
em ann</w>
di agno
b ann
atten tion</w>
ati ven</w>
Z iel
Z i
Z eu
W illi
W ik
Verfü gung</w>
Ver lu
St rat
S ho
P ark
Mex iko</w>
Manch ester</w>
IB M</w>
Ho sp
HI V</w>
Ges am
G ouverne
Dro gen
Dom sp
Distri ct</w>
Demo krati
Champi on
B a
Al though</w>
3 3</w>
Ö ster
war t</w>
w ün
w asn</w>
vot ed</w>
verb in
ver mut
v o</w>
st in</w>
se x</w>
rele ase</w>
recor ds</w>
recei ve</w>
re chte</w>
pen al
p unk
nation alen</w>
mit g
letz t</w>
klag t</w>
ke i</w>
intro duc
in ation</w>
ie gel
hi er
gesch o
ein zel
der ung</w>
dam age</w>
d rü
cou ple</w>
com par
ci se</w>
care er</w>
c ting</w>
b on
Z wei</w>
Wahl kamp
Th er
T we
T r
T aus
Risi ko</w>
Rh ein
Rau m</w>
Par k</w>
Mor e</w>
Gef än
F ak
Erfahr ung</w>
Com pu
B ir
äm lich</w>
ä te</w>
wat ch</w>
w under
vol ution</w>
victi ms</w>
verschie denen</w>
ver samm
us ually</w>
ti gung</w>
than ks</w>
syst ems</w>
sur ro
stei gen</w>
st ars</w>
shi ps</w>
sch -
re member</w>
prot est
p un
p p</w>
olog ie</w>
off ered</w>
ni emand</w>
mü sse</w>
mid dle</w>
m as</w>
lin gen</w>
le vels</w>
lau b
itali en
ig t</w>
hous ing</w>
ha ps</w>
ha ft</w>
gra tion</w>
ge m</w>
fun ding</w>
fa ir</w>
ev ents</w>
ev ent
eng ers</w>
emer gency</w>
dis covered</w>
den ke</w>
dem and</w>
crimin al</w>
cast le</w>
brau chen</w>
b lieb</w>
b ing</w>
b ein
aus ländi
ab or
T ab
Stra ßen</w>
Spiel e</w>
R ö
Pf und</w>
P at
N H
Mad rid</w>
Ma cht</w>
Krie g</w>
K oh
Inv esti
Hen ry</w>
E conom
Cor by
Can ada</w>
Bul g
Ant wor
Angel es</w>
20 20</w>
2 7
x ed</w>
wi es</w>
wen ige</w>
vie ws</w>
vari ous</w>
ti er</w>
thi op
th ro
te x
t led</w>
st ens</w>
st ands</w>
ss y
sp rün
sch uss</w>
republi kan
rei s
r on</w>
po ll</w>
n ämlich</w>
m ur
lo gi
li sten</w>
l ass
k um</w>
k raten</w>
gu i
gro wing</w>
gen ie
gef allen</w>
ge setz
fre i</w>
fir m</w>
ex clu
el se</w>
ehemali gen</w>
de partment</w>
cre ate</w>
con fli
ci an</w>
c s</w>
big gest</w>
b illi
ash ed</w>
ari es</w>
ar my</w>
a ther</w>
W ar</w>
Verbin dung</w>
To day</w>
T om
Som mer</w>
Schü ler</w>
Schmid t</w>
S of
S lo
R on
Prei se</w>
On line-
Mari a</w>
Kon kur
For sch
Fol ge</w>
Dur ing</w>
C ap
Bil der</w>
Be völk
är en</w>
zu frie
wei le</w>
vehic le</w>
us h</w>
two -
ta ined</w>
t ell</w>
st ood</w>
sh ou
resear chers</w>
ra in</w>
r ated</w>
pro secut
net work</w>
materi al</w>
ma ch
m om
läu ft</w>
loc ated</w>
lie ßen</w>
k ö
j ah
is ing</w>
insur ance</w>
hal ten
getro ffen</w>
ge ssen</w>
ge be</w>
fl ation</w>
finan zi
fer enz</w>
f estival</w>
direc tly</w>
deb ate</w>
da gegen</w>
car ry</w>
beg innt</w>
at te</w>
agu es</w>
Stra ßen
Re por
Produ kte</w>
Por tu
N ich
Mor gen</w>
Kol legen</w>
John son</w>
I tal
G est
Fuß ball
Fre unde</w>
Fl ori
Bu d
Arbeit sp
ä ß</w>
tri al</w>
tra v
star ting</w>
st ant</w>
sp ruch</w>
reve aled</w>
prev ent</w>
ph ones</w>
part ner</w>
p an
or ders</w>
n ation</w>
mo di
me an</w>
lü ck</w>
län e</w>
lu e</w>
langu age</w>
k tur</w>
h au
gesch rieben</w>
fu hr</w>
four th</w>
f rau
ex hi
en er</w>
ei st
ec k</w>
e asy</w>
dig ungs
de bt</w>
d ank</w>
consu l
con ference</w>
bre ak</w>
belie ves</w>
basi s</w>
az z</w>
ast ro
a po
T rau
Secur ity</w>
Re de</w>
Rah men</w>
P et
P ani
On ly</w>
Mark t
Mari o</w>
M ig
H inter
For m</w>
Clu b</w>
C -
Bür ger</w>
Bot schaft</w>
B em
über zeu
wär en</w>
we hr
wal k</w>
w -
vermut lich</w>
ver stär
ver ab
ve au</w>
tr at</w>
tar get</w>
tal ks</w>
t ür
soci ety</w>
sc ene</w>
rä um
re ti
pp er</w>
pie ce</w>
p ush
opp ing</w>
off ers</w>
o li
n on-
mar t
m är
m und</w>
m bo
li gen</w>
k ir
gu n</w>
gh t-
ges ellschaft</w>
gen au
fi f
dro h
con trol
ch a
certain ly</w>
bu y</w>
ben utz
beh örde</w>
began n</w>
at oren</w>
am bi
Wissen schaft
Vertre ter</w>
Ver gan
T ha
T em
Ro y</w>
Min ute</w>
L eu
Kör per</w>
Kriti k</w>
Kar l
Ital y</w>
Gesch äft</w>
CS U</w>
wei s</w>
web site</w>
w il
v ille</w>
typ e</w>
trau en</w>
te dly</w>
su l
stim men</w>
st ark
sich ts
ser ves</w>
se es</w>
schlä ge</w>
re t
popul ation</w>
po ll
k m</w>
it able</w>
inv esti
h ur
gu ez</w>
gro ß</w>
gew onnen</w>
fo re
erh ielt</w>
ent al</w>
end um</w>
en g</w>
do or</w>
dig keit</w>
dien st</w>
compu ter</w>
char ges</w>
beg lei
be züglich</w>
ar di
ar chit
ani a</w>
ac king</w>
Wochen ende</w>
St r
Spit ze</w>
Schul en</w>
Sal z
Ro dri
Republi cans</w>
Regi er
R ec
Kre di
Kon gress</w>
K ab
J ames</w>
Her r
H on
H ig
D er
Aus sage</w>
4 -
á n</w>
y a</w>
verkauf t</w>
verantwor tlich</w>
us ual</w>
unterstütz t</w>
tra dition
t our</w>
shar es</w>
sch ule</w>
redu ce</w>
prot ect</w>
parliam ent</w>
opport unity</w>
nor th</w>
nie der
mäß ig</w>
l ungs
k ern</w>
je dem</w>
ill s</w>
i erten</w>
high ly</w>
gleich zeitig</w>
gir l</w>
ges ell
früh eren</w>
ex ac
er ne
en jo
ell ed</w>
direc tion</w>
com b
cla im</w>
bri dge</w>
bo y</w>
beg in</w>
Wei l</w>
Ver ein</w>
T y
Swi ss</w>
Stu di
St elle</w>
Span ish</w>
Mit tel</w>
Lei ter</w>
L a</w>
Kra ft</w>
Kop f</w>
Gel d
Fäl len</w>
D un
Com p
Behand lung</w>
Beam te</w>
B om
Arme e</w>
Ab bot
wirk ungen</w>
wi sh</w>
wi d
uni on</w>
ti ves</w>
ti al</w>
te ams</w>
surv ey</w>
richti g</w>
rest auran
reas ons</w>
re form</w>
pre me</w>
pass ed</w>
p sych
oper ations</w>
oo d
neu n</w>
mehr eren</w>
m agaz
long- term</w>
limit ed</w>
kl ein
k rise</w>
im ag
ho ch</w>
h nach
gri ffen</w>
gr und
gi ving</w>
get an</w>
ge spielt</w>
g ericht</w>
er kan
di vi
deta ils</w>
clim ate</w>
ck te</w>
ch mal</w>
ch -
be ha
at ur</w>
an den</w>
ad o</w>
V it
Tit el</w>
Sy mp
S V</w>
Res ear
Poliz isten</w>
Pati enten</w>
Mis s
Kil ometer</w>
J ones</w>
Geor gi
Ge füh
E v
E l</w>
D op
Com mun
Aut ob
war ten</w>
w olle</w>
versu chte</w>
verk ehr</w>
ver se</w>
us ers</w>
under stand</w>
tur ning</w>
ti tle</w>
sle ep</w>
si des</w>
seri ously</w>
sei te</w>
sch lagen</w>
s in
rel ated</w>
regi erung</w>
ref le
pati ents</w>
p m</w>
nu clear</w>
mein t</w>
k ap
ist e</w>
individu al</w>
increas ing</w>
ic es</w>
gra ph
erzäh lt</w>
em is
e ten</w>
e chti
dür fen</w>
durch schnit
d liche</w>
com mer
ck er
bestä tigt</w>
ber üh
b ü
b ruch</w>
audi ence</w>
ant age</w>
am b
all -
ail s</w>
a ware</w>
Wei hnach
Vergan genheit</w>
Ver trag</w>
Un gar
Un fall</w>
U BS</w>
Tur k
Sing ap
Sen ate</w>
Sch ä
S oh
Pro vin
N et
Inter esse</w>
Immobili en
Ih nen</w>
I M
Hung ary</w>
Glei ch
Geb ur
G il
G B</w>
Fre u
F örder
Ele k
E i
Deut schen</w>
D P</w>
C roati
An stieg</w>
An griff</w>
A ri
2 6
19 5
1 20</w>
ü bri
zuneh men</w>
zu min
zumin dest</w>
we gs</w>
w ind</w>
vor ge
uns er</w>
un ding</w>
te sten</w>
t i</w>
so fort</w>
s ession</w>
men tioned</w>
m ind</w>
let t</w>
ko sten</w>
k -
jähri gen</w>
in formi
i ties</w>
high -
geh ö
g ert</w>
forder te</w>
fe ar</w>
erne ut</w>
ent sprech
ell or</w>
dri vers</w>
dr itten</w>
disk u
de ckt</w>
brau cht</w>
bil dung</w>
be lieb
be für
b att
W ort</w>
W all</w>
St unde</w>
Spani en</w>
Re geln</w>
R et
R ak
Pak istan</w>
P el
O l
Nachri chten</w>
Krank heit</w>
Kar ri
K ünst
Ger man
Geb iet</w>
E rei
Christi an</w>
Beam ten</w>
Ban ken</w>
As best</w>
1 50</w>
Ü ber</w>
west ern</w>
v ill
u es</w>
thre at
te ach
stre ssed</w>
st ück</w>
so ft</w>
sk y</w>
schrei ben</w>
s li
represent ative</w>
pre pared</w>
pre di
po l
p aper</w>
om s</w>
om et
nutz en</w>
n atur
li eben</w>
kei ts
kauf t</w>
k am
is a</w>
im age</w>
il e
hundre ds</w>
hand eln</w>
gen der</w>
ga ther
g ste</w>
g al</w>
füh len</w>
fas hion</w>
fam ous</w>
f iel</w>
extre m
exp ensive</w>
exac tly</w>
erinn ert</w>
er enden</w>
emp ha
ein ander
eig entlich</w>
di ger</w>
cro w
beispiel sweise</w>
ar m
al u
ac tive</w>
Tur key</w>
Sp i
Schla f
Sch ie
S ci
Radi o</w>
R ang
Qu art
Premier minister</w>
Partei en</w>
P l
Mit te</w>
Lab our</w>
K lei
Gre en
G ö
Flücht ling
Christ mas</w>
B is</w>
B en</w>
B ell
Auf gabe</w>
Ar ti
Afri ca</w>
A syl
5 ,
3 2</w>
3 -
z dem</w>
wer fen</w>
ver pflich
unter schie
te sts</w>
t ut</w>
surpri se</w>
stu dent</w>
ster ed</w>
star b</w>
st in
sp ring</w>
so -
se y</w>
richt ung</w>
ra ised</w>
progra m</w>
plan e</w>
oc cur
li f
le gt</w>
la ws</w>
l ad
k new</w>
k al
ist ischen</w>
intel ligence</w>
hop es</w>
gre ater</w>
gl ück
gener ation</w>
ge -
ga in</w>
g ol
g a</w>
el ek
de vices</w>
auf genommen</w>
announ cement</w>
ak es</w>
addre ss</w>
Wass er
Ver b
Tür kei</w>
Rodri guez</w>
Ren nen</w>
Publi kum</w>
Mitg lied</w>
M icro
Her aus
H ill
Gesprä che</w>
G old</w>
F ün
E li
C ro
Bre x
Bar ack</w>
A mt</w>
vor berei
ver th
verth eless</w>
ten de</w>
t al</w>
t age</w>
sto ck</w>
sex ual</w>
schn itt</w>
resp ect</w>
represent atives</w>
re ligi
re commen
pra kti
ord nung</w>
no ther</w>
ma kers</w>
lief ert</w>
law yer</w>
kan did
j ungen</w>
ie gel</w>
ho l</w>
gewi esen</w>
ger y</w>
fl uss</w>
fem ale</w>
er ous</w>
eng ine
ei l
ec ause</w>
dau ghter</w>
da cht</w>
con sequ
buil dings</w>
bie ter</w>
b ru
al tern
ak zep
ag s</w>
abhän g
Unternehmen s
To chter</w>
Stuttgar t</w>
St ur
Rei se
Pe ter
Parlam ent</w>
Lö sung</w>
L etz
Kon fli
K al
G rü
Flüchtlin gen</w>
F A
E ast
Domsp at
D S</w>
C E
Be zug</w>
B ecause</w>
B ahn</w>
An zei
Amerikan er</w>
A nother</w>
A ma
7 .
4 4</w>
ück e</w>
Öffent lichkeit</w>
win ner</w>
vor aus
vers ary</w>
und ation</w>
tur ns</w>
ti ger</w>
t ent</w>
stru c
st ro
so- called</w>
sig keit</w>
si li
sen ce</w>
se at</w>
sch ö
russi sche</w>
respon se</w>
rei b
ra gt</w>
pro jects</w>
pri son</w>
pre mi
pp e</w>
po ol</w>
per pet
or f</w>
off en</w>
num bers</w>
nied ri
mon it
man chmal</w>
lo wer</w>
lie ß
le gte</w>
kl assi
kauf s
k lu
k el
igran ten</w>
groß er</w>
gesch äf
gen e
geh end</w>
geb iet</w>
exp ect</w>
et ten</w>
er wäh
ens ure</w>
ein s</w>
dri ving</w>
direc t</w>
contri bu
busin esses</w>
beton t</w>
bestä tigte</w>
benef it</w>
be ste</w>
be finden</w>
anim als</w>
ac qu
Z ahlen</w>
Wohn ungen</w>
T ig
R us
P unkt</w>
Organ is
Lig a</w>
Kom mission</w>
I s</w>
Hoff nung</w>
Haus es</w>
H ay
Fern seh
Ein wander
Dien st
D ann</w>
Camer on</w>
C ri
Aus wirkungen</w>
Abbot t</w>
wirtschaft lichen</w>
w inning</w>
w ann</w>
verb rei
t an</w>
steh enden</w>
si tes</w>
sh opping</w>
schütz en</w>
schle cht</w>
s an
oth er
ob j
näch ste</w>
n ine</w>
mon g</w>
massi ve</w>
m ers</w>
let ter</w>
laun ched</w>
lang fri
kehr en</w>
ju dge</w>
je de</w>
in ts</w>
in cident</w>
ho fft</w>
her aus</w>
go w</w>
gi ves</w>
ger e
fahr er</w>
ent schieden</w>
da ily</w>
ck y</w>
ck -
call s</w>
beha vi
be coming</w>
aus gest
attemp t</w>
ar ance</w>
ar a</w>
alle y</w>
air s</w>
ad verti
Y e
Vertei digungs
Stim men</w>
Sch o
Re k
L ang
Kr onen</w>
I denti
Hal b
Ge g
Domspat zen</w>
CN N</w>
C l
A mong</w>
A ct</w>
5 5</w>
öffent lich
zu letzt</w>
z y</w>
x -
wur f</w>
writ ten</w>
wi ssen
wi schen
w u
visi tors</w>
ti ous</w>
ta xes</w>
t on
su it</w>
st ly</w>
st a</w>
sof tware</w>
si ze</w>
s we
ru g</w>
ro ads</w>
rel ation
re turned</w>
pra ctic
pass engers</w>
on e-
na he</w>
n ar
mus sten</w>
mis sing</w>
minist ers</w>
lin ed</w>
ligh tly</w>
lan ce</w>
l erin</w>
künf tig</w>
k tur
is s
interest ed</w>
inde x</w>
in come</w>
i ere</w>
heav y</w>
h ieß</w>
gi an</w>
g no
g ingen</w>
fäl lt</w>
figh ting</w>
fahr t</w>
f und
d oping</w>
critic ism</w>
colle agues</w>
co alition</w>
claim ed</w>
ch oo
c tive</w>
bis lang</w>
be en
b um</w>
ann ual</w>
am t</w>
air e</w>
ad mitted</w>
Turk ish</w>
Trot z</w>
Th eir</w>
Sch lag
S now
Nu n</w>
Mob il
Mes otheli
Ju st</w>
Gu ardi
Geri cht
G ast
For d</w>
F ron
Ex -
Euro s</w>
Direc tor</w>
Demon stran
D ass</w>
C E</w>
B it
ö tz
äh r</w>
x is</w>
wen dung</w>
verhin dern</w>
verb and</w>
v als</w>
uss es</w>
ur ies</w>
ti e</w>
stat us</w>
st yle</w>
st ore</w>
sp ent</w>
so und</w>
sco w</w>
ri c</w>
ren e
pre par
penal ty</w>
ow ned</w>
nat ure</w>
n ann
k la
k ehr</w>
journal ists</w>
j our
invest ors</w>
initi ally</w>
iel ten</w>
hous es</w>
he aring</w>
hab t</w>
gu ests</w>
gesam te</w>
gen e</w>
gelö st</w>
gef ähr</w>
gef ragt</w>
g one</w>
fü gt</w>
ff er</w>
fest genommen</w>
fan den</w>
ey es</w>
entwick elt</w>
ent er</w>
em e</w>
dro p</w>
do w</w>
dise ase</w>
dan ach</w>
d s
confli ct</w>
commit ted</w>
beg onnen</w>
be mer
ar gu
ange kündigt</w>
Z ur</w>
W en
V W</w>
T or</w>
Su preme</w>
Sa x
Re fer
P rü
P r
Mo st</w>
Mo scow</w>
Mar ke</w>
Leu ten</w>
Kre u
Ju stice</w>
Hei m
G ü
G lück</w>
F ans</w>
Dan iel</w>
D al
Bra zi
Be wer
Austri a</w>
Angeb ot</w>
All erdings</w>
Al le</w>
Ak tivi
war ned</w>
völ lig</w>
ver sion</w>
ver bot
ung spro
thre at</w>
tal king</w>
st one</w>
spiel te</w>
sol chen</w>
sch ön
rä u
ri es</w>
ren ti
r ong</w>
po st
o p</w>
neg ative</w>
mo ving</w>
mei ster
main ly</w>
lo sen</w>
ler nen</w>
ini ert</w>
indepen dent</w>
in en</w>
ho he</w>
h us
gel assen</w>
ge zeigt</w>
ga gement</w>
führ ten</w>
fort un
fi zi
ex tra</w>
ex -
erwar ten</w>
en ko</w>
en cour
em lich</w>
durch geführt</w>
dri ve</w>
dou ble</w>
der t</w>
dan ger
coun t</w>
concern ed</w>
chall enge</w>
cent er</w>
c ell</w>
briti schen</w>
boo ks</w>
blo ck</w>
at ter
ar an
appro ach</w>
an ne</w>
X -
Ungar n</w>
Te ams</w>
St ein
Ro yal</w>
P -
Mo sk
L es
K enn
I r
I mp
G ames</w>
Fuß ball</w>
Europä ischen</w>
Bo den</w>
Bevölk erung</w>
Be dingungen</w>
B on
B au</w>
2 4
1 -
zw ungen</w>
wor k
wer te</w>
w ä
w rong</w>
vo c
v e-
twi ce</w>
thre e-
t äu
t ask</w>
sy mp
str ateg
stopp ed</w>
sp ending</w>
sor gen</w>
schwar ze</w>
schi en</w>
sch lim
ru ling</w>
regar ding</w>
re stri
re chts
r ent</w>
origin al</w>
nation ale</w>
mis s
ma yor</w>
lo wing</w>
k lei
k as</w>
glau bt</w>
gh out</w>
gesch aff
ge hei
franzö sischen</w>
flä che</w>
fig ure</w>
en se</w>
dre am</w>
clu bs</w>
c amer
belie ved</w>
be ck</w>
ati s
as ing</w>
ander es</w>
ad ding</w>
Zu gang</w>
Verhand lungen</w>
Trump s</w>
T es
St ar</w>
Secre tary</w>
Ph ili
Ne ym
Lin ie</w>
Kul tur</w>
I G
Hill ary</w>
Her z
H ein
Führ er</w>
Fu ß</w>
F euer
F erg
E hr
Demonstran ten</w>
D e</w>
Bot h</w>
Akti en</w>
3 ;</w>
3 7</w>
1 ;</w>
&#9 3;</w>
&#9 1;</w>
zu stellen</w>
y ond</w>
weiter er</w>
weap ons</w>
w ehr</w>
u red</w>
th in</w>
th ern</w>
stra fe</w>
sti gen</w>
sozi alen</w>
sig ns</w>
sho wn</w>
schwer en</w>
schau en</w>
sch wei
s end</w>
s ale</w>
ro se</w>
prof it</w>
particip ants</w>
minist erin</w>
loo ks</w>
leb ens
gest iegen</w>
genann t</w>
g y</w>
g un
g ers</w>
frü hen</w>
feh l
fan gen</w>
f än
f ern</w>
exper t</w>
est ic</w>
erh eb
e asi
dou bt</w>
docum ents</w>
democra cy</w>
def ence</w>
dec ades</w>
cul tural</w>
con vers
con dition</w>
c z</w>
besch ul
appro pri
ali siert</w>
acc ep
ab les</w>
a wa
a id</w>
Vic t
Th ose</w>
St ati
Sen ator</w>
S än
S ein</w>
R am
P läne</w>
P S</w>
Mot or
Konkur ren
Ju sti
H as
Gra d</w>
Gesund heit</w>
Bundes sta
Ak tion</w>
A gent
8 00</w>
1 000</w>
. com</w>
wei st</w>
verur teilt</w>
ven ue</w>
uni versity</w>
te sted</w>
sto res</w>
sel ben</w>
se em</w>
sch rau
sag es</w>
ri er</w>
quar ters</w>
promis ed</w>
p al
notwen dig</w>
ne e</w>
li ved</w>
kno ws</w>
in zwischen</w>
i -
heri gen</w>
h all</w>
größ ere</w>
gir ls</w>
ge plan
f it</w>
erst mals</w>
entschei den
end lich</w>
empha si
ed on
e te</w>
dru gs</w>
del s</w>
d nis</w>
com ment</w>
cho ice</w>
bann ed</w>
at mosp
anni versary</w>
ange sichts</w>
al a</w>
a ke</w>
Zu stand</w>
Zei ten</w>
Val dez</w>
V e
Stre cke</w>
Som mer
Sch ool</w>
S par
S ig
Li cht</w>
Kon takt</w>
Kli ma
Itali en</w>
Heraus forder
Gef ahr</w>
G ruppen</w>
G lob
Fäl le</w>
Fe der
E ssen</w>
Dur ch</w>
Bezieh ungen</w>
At om
3 9
3 6</w>
0 er</w>
äus ern</w>
zer stör
wir kt</w>
verschie dene</w>
u si
te acher</w>
stan ces</w>
st ati
son st</w>
sh ire</w>
serv ative</w>
sear ch</w>
scienti sts</w>
s outhern</w>
s outh</w>
ru le</w>
ro s</w>
rech nen</w>
produc ed</w>
phot os</w>
pa in
p it
p el
ourn al</w>
ot ten</w>
op tion</w>
o wa</w>
negoti ations</w>
mean ing</w>
lä tze</w>
lic op
li ber
lei sten</w>
le aving</w>
l o</w>
l auf
l ation</w>
k ungen</w>
ir ing</w>
ini an</w>
il er</w>
il and</w>
holi day</w>
hol ding</w>
grei fen</w>
gehö ri
ge tragen</w>
fre e
eri en</w>
er es</w>
en zi
el en</w>
dig lich</w>
continu es</w>
col lap
ck en
chti gen</w>
attemp ted</w>
at al
all ed</w>
a der</w>
Wei ßen</w>
Tran sport</w>
T äter</w>
Scot t</w>
Sch wer
Sch ließ
Rest auran
R enn
Punk ten</w>
Pas sag
O t
O sten</w>
Nor we
Nor den</w>
Mu seum</w>
Mc C
Li by
Kl ein
Kir che</w>
I S</w>
Gi pf
F ei
Den noch</w>
D ra
B rei
200 2</w>
zi emlich</w>
z on</w>
well -
wei t
we ak
victi m</w>
us on</w>
ur a</w>
ul ation</w>
tran sport</w>
tra ditional</w>
su m</w>
stand ards</w>
sen den</w>
schwar zen</w>
sch ü
sam en</w>
s anc
ru s</w>
ro b
resc ue</w>
re p
ra il
r t</w>
pl es</w>
p age</w>
organ isi
m ass</w>
k ein
ju stice</w>
ing t</w>
im ages</w>
hus band</w>
h ielt</w>
gra du
genann ten</w>
g ymn
f ro
er fül
er ende</w>
ep h
dro ht</w>
cro wns</w>
contra cts</w>
consi der</w>
con cent
ck ets</w>
cal cul
c e-
bel ow</w>
ass es</w>
an de</w>
Wettbewer b</w>
Ver änder
U E
Th an
T ie
Stim me</w>
St ück</w>
S anders</w>
R oll
O ther</w>
M ur
M oo
M ehr</w>
K im</w>
K am
Holly wood</w>
H ong</w>
Gre en</w>
Gesprä ch</w>
Gegen satz</w>
Energ ie
Eig ent
E ben
Ar chit
An der
4 2</w>
ü r</w>
z z
wi esen</w>
wa ff
u li
tür k
tre ss</w>
tim ately</w>
ti tu
ten den</w>
stän den</w>
stri ke</w>
si eren</w>
sel f-
secre t</w>
schlu g</w>
sch ä
re in
politi cians</w>
po or</w>
perpet rat
per haps</w>
organiz ation</w>
nam ed</w>
mit teilte</w>
m ary</w>
län der</w>
lin er</w>
il leg
hol en</w>
hei t
he ar</w>
hal te</w>
h äre</w>
gef ahr
ey e</w>
en b
ein z
di ch</w>
desig ned</w>
deli ver
danger ous</w>
coun ter
co ff
char ged</w>
ch ern</w>
c ine</w>
bi tion</w>
beh örden</w>
be am
at z</w>
argum enti
appe ared</w>
ap art
air cra
adv antage</w>
ac ts</w>
Wissenschaft ler</w>
Vorsitz ender</w>
Tat sache</w>
Ste wart</w>
Snow den</w>
Ser vice</w>
S up
Resear ch</w>
Rei se</w>
Proz ess</w>
Pre sse</w>
Pra gue</w>
NH S</w>
Man ager</w>
Le e</w>
K ämp
K ong</w>
Ira q</w>
Hau shal
Ham burg</w>
H es
H er</w>
H ag
Gesam t
G ri
G et
Ch el
Ch ef
Bl ut
4 9</w>
ähr t</w>
zeich nen</w>
wor se</w>
wi se</w>
vot ing</w>
vot es</w>
voll en</w>
ver lan
ub schrau
thin ks</w>
t we
sy mbo
stat tung</w>
stag abend</w>
spo ke</w>
sp end</w>
sc andal</w>
prof essor</w>
passi ert</w>
p ment</w>
or ie</w>
no tic
n ü
müs sten</w>
ma g</w>
m igrants</w>
m end</w>
ko sten
it als</w>
inter ests</w>
inj ury</w>
in ner</w>
i kan
h ausen</w>
gu ter</w>
gesam ten</w>
ger ne</w>
ge sprochen</w>
fu n</w>
f av
estim ated</w>
erlau bt</w>
eri a</w>
er gi
dou b
dig ungen</w>
cor ruption</w>
ci ties</w>
car rying</w>
c op
c en
bewus st</w>
bet re
bel ast
beg innen</w>
außer halb</w>
auth ority</w>
au lt</w>
ar tic
appe arance</w>
al ists</w>
Z we
Wi der
T ony</w>
T at</w>
St an
Sp a
Sch utz</w>
Rou ge</w>
Re st</w>
Pre ss</w>
Per ry</w>
Part ner</w>
Pa ar</w>
O st
NAT O</w>
Micro soft</w>
Jun ge</w>
Inter ior</w>
In te
Hand els
Glas gow</w>
Gesch le
Ge wi
G as
Fre und</w>
Fot os</w>
Ferg uson</w>
Er inn
Er de</w>
Di plom
Coun ty</w>
C A
Bem üh
Be fore</w>
An kl
An hän
Ak tiv
8 5</w>
ó n</w>
Är zte</w>
zei ten</w>
zei gten</w>
z -
wichti gen</w>
welt weit</w>
w ins</w>
vor sitz
ver lieren</w>
un abhängi
throu ghout</w>
ter te</w>
ter ri
teil weise</w>
t oren</w>
t g
sum mit</w>
step s</w>
sen si
schwieri g</w>
publi c
per man
p a</w>
oper ating</w>
offen sichtlich</w>
o un
nor mal
neu est
n esses</w>
mög liche</w>
municip al</w>
mit ten</w>
le gi
le diglich</w>
kün digte</w>
kü mm
kil omet
ken nt
is n</w>
inter pre
inclu des</w>
hin zu
her self</w>
groß es</w>
go als</w>
ger ei
gem äß</w>
fri end
er weile</w>
er ster</w>
em ed</w>
ei l</w>
eff ort</w>
do g</w>
do ctor</w>
dien st
di stance</w>
de pen
de cre
d ying</w>
concern s</w>
conc ern</w>
c ells</w>
bro ther</w>
berüh m
behaup tet</w>
ast s</w>
ari schen</w>
ar ily</w>
all u
ag ree</w>
activi ties</w>
a be
Zusammen hang</w>
Ver waltung</w>
Ver such</w>
Tex as</w>
Ta ges
Step hen</w>
Sch ön
S we
Prei s
Politi ker</w>
Ph il
Per sön
Par liam
Lei stung</w>
Hunder te</w>
Han del</w>
H öh
G äste</w>
For tsch
FB I</w>
F la
Euro zone</w>
Ermittl ungen</w>
Des halb</w>
Corby n</w>
Cel tic</w>
C amp
Bezir ks
Besch äf
B üh
Au gen
Antwor t</w>
Am erika</w>
A i
4 7</w>
199 9</w>
ü hren</w>
w ill
vi ously</w>
verkauf en</w>
ver waltung</w>
ver stehen</w>
v ince</w>
v ent
us sel
ur sprün
um b
tran spor
t ner</w>
t ment</w>
steh ende</w>
star tet</w>
spokes person</w>
seek ing</w>
sch em</w>
s ätz
ru b
renti ss</w>
regi stered</w>
refuge e</w>
ra ise</w>
r i</w>
num erous</w>
ni ssen</w>
milli ons</w>
m ir
län gst</w>
li ter
k ör
inten si
il fe</w>
iel d</w>
he al
har dly</w>
haf tet</w>
ge zwungen</w>
g rü
g liche</w>
for men</w>
fin ished</w>
fi red</w>
feel ing</w>
fas st</w>
fa il
f ence</w>
f ast
f ang
ex pressed</w>
ex er
erh ö
di schen</w>
desig n</w>
credi t</w>
cre am</w>
cor rec
col li
cho ir</w>
ch tete</w>
c ast</w>
beau ti
b s
b ab
auf tra
angeb lich</w>
amb assa
Zu dem</w>
You Tu
Ver fahren</w>
Ver brau
Te chni
T op
T al
Su che</w>
Strat eg
Sen at</w>
Sch on</w>
Sch mer
S ub
Re u
R ed</w>
P rentiss</w>
P P</w>
Olymp ischen</w>
Olymp ics</w>
N um
Me er</w>
Mar k</w>
M ein</w>
Lo wer</w>
Lebens mittel
Lauf e</w>
Kl asse</w>
Hosp ital</w>
H ur
H ist
Gr and</w>
Febru ary</w>
Febru ar</w>
E gyp
Chanc en</w>
Ch ance</w>
C ast
Bo eing</w>
Bei m</w>
B and</w>
B ab
An hör
öffent lich</w>
ä r</w>
w inn
un gefähr</w>
t ations</w>
ster ben</w>
stark en</w>
star ke</w>
squ are</w>
sour ce</w>
sitz en</w>
si denten</w>
s lightly</w>
ri s</w>
regul ar</w>
rat ing</w>
produc t</w>
pro ved</w>
pro posed</w>
pro fi
pos sibility</w>
p ath</w>
offic er</w>
occur red</w>
o de</w>
m -
lo sses</w>
lich erweise</w>
le u
ladi mir</w>
ist ic</w>
influ ence</w>
h eb
gri ffe</w>
gre en</w>
gel d</w>
gar ten</w>
g ül
füh lt</w>
fo c
fl us
f ish</w>
experi enced</w>
eröff net</w>
erinn ern</w>
erh ält</w>
en cy</w>
dro pped</w>
dom estic</w>
disc uss</w>
den noch</w>
demokrati schen</w>
da vor</w>
d den</w>
commer cial</w>
c oll
c lin
bre ak
be at</w>
b ought</w>
b ase</w>
auth or</w>
ati vely</w>
as ks</w>
ar rest</w>
appe ar</w>
appe al</w>
ans wer</w>
ann a</w>
ab geschlossen</w>
a sion</w>
a im
Woh nung</w>
West ern</w>
Twit ch</w>
T ä
T an
Sax ony</w>
Re al</w>
Pal u</w>
P atri
Neym ar</w>
L iste</w>
Kon gre
J ung
H P</w>
Gemein der
Fern sehen</w>
Famili en
Er n
Ein er</w>
Di rektor</w>
D rei
Col lege</w>
Chanc ellor</w>
Bür o</w>
B am
An teil</w>
An gele
An dere</w>
AD A</w>
y o</w>
y m</w>
wen den</w>
w w
voll er</w>
ver gessen</w>
ung er</w>
ti sh</w>
sur gery</w>
su chte</w>
spe ak</w>
signific antly</w>
sam keit</w>
rie si
regul ations</w>
ref used</w>
reduc ed</w>
re den</w>
profession al</w>
pri me</w>
power ful</w>
ow ners</w>
ow ner</w>
op tions</w>
ministeri ums</w>
m ale</w>
loc ation</w>
lea der
la den</w>
ing ham</w>
i cht</w>
hol ds</w>
hist ori
he licop
har t</w>
gl ass</w>
ge he</w>
ge be
fin e</w>
fan ta
fac ed</w>
f ying</w>
et ary</w>
el ly</w>
el -
einge setzt</w>
e ful</w>
di n</w>
del ay</w>
deci sions</w>
da d</w>
d ul
cri tical</w>
conne ction</w>
comp ens
cis co</w>
ch ner</w>
bo ys</w>
bezeich nete</w>
bess ere</w>
beein flus
b rü
au ßen</w>
atmosp here</w>
ath oli
appro ved</w>
all gem
ad ed</w>
activi sts</w>
acc ept</w>
ac ity</w>
ab use</w>
a im</w>
W a
Ver halten</w>
Tre as
Tour isten</w>
To des
Teil nehmer</w>
T est
Staatsan wal
Spe zial
Soh n</w>
Sin alo
Sim one</w>
Sch u
Quart al</w>
Parlam ent
Nachri chten
N atur
Lu x
J .</w>
In frastru
G ab
Fran cisco</w>
Fol lowing</w>
Fahrzeu ge</w>
Deb atte</w>
D ort</w>
Cor n
C af
Bundes liga</w>
Besu cher</w>
Agent ur</w>
A p
4 3</w>
-jähri gen</w>
ähn lich</w>
Ö l
zufrie den</w>
wäh len</w>
ver trau
ver fahren</w>
ver anstal
um str
th alle</w>
sub si
str ate
sp ä
sp rü
sel bst
rie f
ri fft</w>
ren ov
rei fen</w>
ran ce</w>
pic ture</w>
perf ect</w>
p .m.</w>
ot er</w>
oper ators</w>
o is</w>
no v
me chan
ma chten</w>
ju sti
jewei ls</w>
j ected</w>
internation ale</w>
inter nal</w>
in stru
im mun
hig he
highe st</w>
hal tung</w>
h ood</w>
ger in</w>
gemein sam</w>
g keit</w>
fra gt</w>
fif th</w>
fe et</w>
f s
es k
erhö hen</w>
er o</w>
differ ence</w>
di vision</w>
degre es</w>
con sum
com ments</w>
cir cum
cent ury</w>
call ing</w>
c ated</w>
ass ess
al ter</w>
ach e</w>
ac tivity</w>
YouTu be</w>
Wachst um</w>
Vor fall</w>
Verletz ungen</w>
Ver wal
Un abhäng
Tra in
Son der
S por
Res er
R hin
No ch</w>
Nach richt</w>
Mün chen</w>
Mit teilung</w>
Mar co</w>
Ma yor</w>
K amer
Her steller</w>
H ab
Gemein schaft</w>
Flugzeu g</w>
Eig en
Din osau
C ho
Bun de
Bemüh ungen</w>
Anhör ung</w>
Af D</w>
6 5</w>
2 .</w>
0 0
-Jähri gen</w>
, 5</w>
überra sch
y es</w>
wissen schaft
wel come</w>
vo ice</w>
versamm lung</w>
ver mu
uni or</w>
um p</w>
tri fft</w>
tri eben</w>
ter rit
stär k
strateg y</w>
si erte</w>
sch were</w>
s inger</w>
roff enen</w>
ri chten</w>
regi stri
pres ents</w>
pp ing</w>
pas st</w>
pa ir</w>
op posi
neu er</w>
n ur
n ings</w>
mes otheli
maxim um</w>
lo sing</w>
ll o</w>
l eng
kra ft</w>
jo ined</w>
ir y</w>
il lu
i p</w>
her vor</w>
groß ar
gre at
geschi ckt</w>
f ör
f illed</w>
et ed</w>
erle bt</w>
erfol greich</w>
equi pment</w>
dra wn</w>
dra w</w>
din osau
da fri
da chte</w>
d sch
ck ers</w>
bo ss</w>
bet rifft</w>
bel e
be halten</w>
appropri ate</w>
appar ently</w>
al tet</w>
accoun ts</w>
a p</w>
W he
Vor stand
Verk auf</w>
Ti ere</w>
Sy st
Sta ates</w>
St or
Sch ram
S ur
Republi k</w>
Rang ers</w>
Nieder lage</w>
Nachbar n</w>
Musi k
Mo der
Mat t</w>
M P
M -
Kan ada</w>
J obs</w>
Invest oren</w>
In stit
H i
Gren zen</w>
Gesetz e</w>
Gener ation</w>
Gar cia</w>
Feh ler</w>
E h
Chel sea</w>
Cha ir
Cent re</w>
Car son</w>
Bil es</w>
App le</w>
6 00</w>
3 4</w>
äu fe</w>
zahl reiche</w>
y outh</w>
won der
wichti ge</w>
we ar</w>
war m</w>
vor bei</w>
verl or</w>
verdi ent</w>
verb unden</w>
to s</w>
ti ef
th -
techni cal</w>
ta ining</w>
stre ets</w>
strate gi
st ät
spe aking</w>
si c</w>
schn eller</w>
s ou
ru hi
rou te</w>
ro l</w>
r uns</w>
prot est</w>
pro jek
plan ts</w>
or ing</w>
opp on
mis sed</w>
man i
m mer</w>
leist ungen</w>
leader ship</w>
laun ch</w>
l esen</w>
l -
kurz em</w>
kno w
jo int</w>
increas ingly</w>
in frastru
ie te</w>
ie -
ici de</w>
i ous</w>
ho st</w>
hel ped</w>
gram m</w>
gh t
ge habt</w>
ga u</w>
f loo
erhöh t</w>
er forder
em an</w>
dur e</w>
di sh</w>
dep uty</w>
d rück
cu ts</w>
cou ldn</w>
cor respon
commit ment</w>
cin em
c ope</w>
bis schen</w>
be dingungen</w>
au ff
ati n</w>
arti st</w>
ari o</w>
a g</w>
Z wischen
Volks wagen</w>
Ver hält
Unternehmen s</w>
Sinalo a</w>
Si cht</w>
Schau spieler</w>
S -
Premi er</w>
P ut
P R
Mög lichkeiten</w>
Mod ell</w>
Mitarbei tern</w>
Me an
M s</w>
M s.</w>
Lei st
Karri ere</w>
I van
F DP</w>
Er st</w>
Energ ie</w>
E P
Can adi
C BS</w>
Bru der</w>
Bot schaf
Bl ack
Arti kel</w>
Archit ek
Analy sten</w>
Ab stimmung</w>
5 3</w>
3 8</w>
ö ll
woh n
wei ßen</w>
war ning</w>
volun te
ver wand
ver kün
v acc
tre ated</w>
tra ins</w>
tig keiten</w>
stre t
ssi g</w>
spiel e</w>
sp ot
sol le</w>
sich ten</w>
shar ed</w>
se ction</w>
sch rän
s n
ru f</w>
relation ship</w>
pre sence</w>
pre ci
posi tiv</w>
po th
parliam entary</w>
not ed</w>
no ti
mi c</w>
mesotheli oma</w>
mes sen</w>
mein te</w>
le dge</w>
l li
k reis</w>
jour ney</w>
it ely</w>
ish ing</w>
is se
ini sche</w>
industri al</w>
in spec
impro ve</w>
imm igration</w>
im mer
heu tigen</w>
gu li
gh er
ge plant</w>
ge halten</w>
fra gte</w>
europä ische</w>
erken nen</w>
er läu
environ ment</w>
entschei den</w>
ent y</w>
employe e</w>
emis sions</w>
em erg
em en</w>
ein iger</w>
ei en</w>
dr itte</w>
do ws</w>
disc uss
den s</w>
den k
dau ern</w>
da m</w>
concern ing</w>
comp lic
chall eng
caus ing</w>
bo dies</w>
bet rug</w>
besch ä
ber icht</w>
beauti ful</w>
be yond</w>
as en</w>
ange sehen</w>
an on
an o</w>
amo un
al co
aktu ellen</w>
aircra ft</w>
accep ted</w>
acc ept
Wolf gang</w>
Wohn ungs
Web site</w>
W ähr
Verfass ungs
Veranstal tung</w>
UE FA</w>
To wn</w>
Sar ah</w>
S nap
S ir</w>
Repor ter</w>
R at
Portu gal</w>
Parliam ent</w>
P op
Op position</w>
O b</w>
Nat ürlich</w>
N eben</w>
N ationen</w>
Män nern</w>
Musli m</w>
Minist er
Man uel</w>
M igranten</w>
Law son</w>
Kop f
K h
J ungen</w>
J azz</w>
H ong
H all</w>
Gre at</w>
Ger äte</w>
Geg ner</w>
G lo
Finan cial</w>
Fer rell</w>
Entschei dungen</w>
Ear th</w>
Dar über</w>
D ah
D F</w>
Col in</w>
Brex it</w>
Bezieh ung</w>
Ab kommen</w>
A thle
A I
5 .000</w>
zu dem</w>
z ation</w>
wir ken</w>
w age</w>
vor her</w>
vo ur
verab schie
ver ändert</w>
ver ring
v ul
ter i
t dem</w>
st rä
st ories</w>
ssy stem</w>
spec tive</w>
sho wing</w>
sh ops</w>
s sel</w>
s burger</w>
ro oms</w>
ri si
ri s
ri ght-
re sol
re moved</w>
protest ers</w>
pro min
po sted</w>
pl ötz
pa in</w>
oper ate</w>
ol l</w>
mitt ler</w>
min im
ma ßnahmen</w>
m einem</w>
län ger</w>
lin ks</w>
kon ferenz</w>
k it
it ten
infrastru cture</w>
hö her</w>
h ou
glei che</w>
gelei tet</w>
ge arbeitet</w>
g li
fre u
fi k
ff s</w>
fe es</w>
fe els</w>
fac ing</w>
f örder
f oot</w>
expla in</w>
event ually</w>
est ate</w>
erklär en</w>
enni fer</w>
elec tron
el and</w>
ed ul
ec tions</w>
disc ussion</w>
devel op</w>
dest ro
de te
de ep
d y
cr ash</w>
cou p</w>
consequ ences</w>
clo ser</w>
ck ey</w>
ch erin</w>
cap acity</w>
bo x</w>
beteili gt</w>
bekan nten</w>
ath s</w>
arbei ter</w>
appe ars</w>
ange klagt</w>
an schließ
al em</w>
air port</w>
War um</w>
Vier tel</w>
Ver öffentlich
Ver trauen</w>
V in
Ur lau
Tem per
Se a</w>
S z
S qu
Regier ung
Oper ation</w>
Ni veau</w>
L op
K roati
K ie
J ennifer</w>
J a</w>
Ira k</w>
In tel
In stead</w>
Gewin n</w>
Gefän gnis</w>
Frei tag
For eign</w>
Flori da</w>
F P</w>
Er öff
Ch em
C aliforni
Bu ch
Bet rieb</w>
B ad
Ar sen
Abgeord neten</w>
7 7</w>
4 1</w>
über prü
äu fer</w>
ähn liche</w>
ä ri
Öster reich</w>
y land</w>
xim ately</w>
wus ste</w>
wichti ger</w>
w asser
w and</w>
ver haftet</w>
v an</w>
ussi ons</w>
ung laub
un ken</w>
un gewöhn
ul l</w>
tru st</w>
to t</w>
to -
t at</w>
suppor ters</w>
stru g
stell vertre
sp ür
si ssi
sch edul
sc en
s low</w>
s as</w>
rit te</w>
refer endum</w>
re ment</w>
re chten</w>
ra y</w>
prin cip
poli tics</w>
pl us</w>
off ering</w>
o k
o do
neu es</w>
nann te</w>
mö gen</w>
mp tion</w>
mon d</w>
mitt elt</w>
manufactur er</w>
lei ter</w>
legis lation</w>
le m</w>
l ying</w>
kon z
ko stet</w>
kehr t</w>
k tor</w>
ist ische</w>
initi al</w>
in ci
hin sichtlich</w>
gef angen</w>
geb il
g ei
fund am
fav our</w>
et h</w>
er o
enth alten</w>
ent ing</w>
emo tional</w>
elec ted</w>
ed y</w>
di eren</w>
di ent</w>
den ied</w>
ch ef</w>
c up</w>
bur g-
beschäf tigt</w>
be auftra
ausge setzt</w>
athle tes</w>
ask et
anim al</w>
ac tor</w>
ab in
W ood</w>
W et
Vi deo</w>
Ver b</w>
V f
Stell ung
St ellen</w>
St ef
St abili
So cial</w>
Snap ch
Ser ie</w>
Rück kehr</w>
Que ens
Op en</w>
N ig
Mis sissi
Mis sion</w>
Mat eri
M P</w>
Ko k
Investi tionen</w>
Hig h</w>
H äuser</w>
Gouverne ur</w>
Geschäfts führer</w>
Fi sch
F le
F ili
Erd be
E- Ma
Drit tel</w>
Det ails</w>
C ur
C e
Bi den</w>
Au di</w>
5 6</w>
199 8</w>
Über wach
wäl te</w>
wa iting</w>
wa it</w>
vorberei tet</w>
vi g
verbess ern</w>
v it
unter wegs</w>
un k</w>
tra ding</w>
tol er
ti k</w>
ti gten</w>
teil ten</w>
te u
t ent
speci fic</w>
sh of</w>
separ ati
separ ate</w>
sco red</w>
sch loss</w>
s é</w>
s wit
s now</w>
s ani
ru fen</w>
regi ons</w>
reg ime</w>
re min
ra p
r ence</w>
prot ests</w>
proper ties</w>
pri son
ph en
pe ace</w>
pass enger</w>
ori al</w>
op tim
natur al</w>
mo stly</w>
mo dels</w>
milit äri
mes sages</w>
mei st</w>
mar ried</w>
m in</w>
m icro
m ex
li t</w>
li ance</w>
k tion
introduc ed</w>
interest ing</w>
ine e</w>
indepen dence</w>
gu aran
gew ann</w>
gesell schaften</w>
gel ten</w>
ge te
fre sh</w>
fir ms</w>
fin ale</w>
establi shed</w>
establi sh
erzäh lte</w>
eri es</w>
er ter</w>
ep ing</w>
ent standen</w>
en des</w>
emp f
einzel nen</w>
ein st</w>
ei ro</w>
dru ck
develop ing</w>
defe at</w>
dan ken</w>
cri mes</w>
cont ent</w>
con f
comple ted</w>
coll abor
c amp</w>
bu ch</w>
briti sche</w>
bra in</w>
bezeich net</w>
beg eist
bal ance</w>
b ac
as king</w>
arbei tete</w>
ar r
applic ation</w>
al do</w>
ak ed</w>
ad d</w>
Zwei fel</w>
Wh y</w>
Vict oria</w>
V ill
Unter schied</w>
Th ree</w>
Taus ende</w>
T ages</w>
T -
Ste ve</w>
Stan ley</w>
So li
R unde</w>
R ein
Qu ad
P D</w>
Mär kte</w>
Mosk au</w>
Mo re
M ol
M ach
Kör per
Kom p
K unde</w>
Jo sé</w>
Jah re
I ts</w>
I ni
Hung arian</w>
H om
H it
Geh ir
D ü
D av
Clin tons</w>
Ch il
C oll
C as
Bör se</w>
Ama zon</w>
Än derungen</w>
z y
win ter</w>
wal d</w>
wa chen</w>
voraus sichtlich</w>
verwen den</w>
up -
un its</w>
um n</w>
tu red</w>
tri p</w>
th af
te en
t tem
t oll
sur face</w>
suppor ted</w>
stell ungen</w>
stei gt</w>
staat lichen</w>
ss lich</w>
se m
se he</w>
schri ften</w>
sch auer</w>
s ni
s ingen</w>
respon sibility</w>
re ali
put ting</w>
punk te</w>
prä sent
pro gress</w>
pri mary</w>
pre t
poli cies</w>
per c
p reis</w>
ott land</w>
organiz ed</w>
or en
offizi ellen</w>
nö tig</w>
n on
n -
me ters</w>
me ant</w>
mat ches</w>
manufactur ers</w>
lu x
lin ien</w>
lear n</w>
lat ter</w>
krie g</w>
k i</w>
k einer</w>
jähr lich</w>
in hab
ig n
her auszu
helicop ter</w>
happ ening</w>
ha fen</w>
gr and
govern ments</w>
gh ten
ger ing
gener ally</w>
ge grün
frei en</w>
fo rec
fi z
ex tent</w>
essen tial</w>
eri schen</w>
el e
ein deu
ehem al
eff ects</w>
ec ting</w>
docum ent</w>
d .</w>
confi dence</w>
com mission
charac ter</w>
cent res</w>
but ed</w>
broad cast
br auch</w>
best immt</w>
behavi our</w>
be zahlen</w>
be an
ban ken</w>
avo i
ambassa dor</w>
ach ten</w>
acc us
a c</w>
Waff en
Ver brechen</w>
Un s
Ukra inian</w>
Them en</w>
Telef on
Städ ten</w>
St ru
Sin ne</w>
Scot tish</w>
Sch ottland</w>
S ome
R ap
Quad rat
Proz ent
Norwe gian</w>
Mus k</w>
Mississi pp
Minister prä
Minist eri
Mili tär</w>
Mil ler</w>
Mean while</w>
Mar yland</w>
M ul
La w</w>
K ub
Jah res
Im mun
I an</w>
Hes emann</w>
H eute</w>
Gr öße</w>
G rie
Fi scher</w>
F ig
F a
Ein wohner</w>
E ric</w>
Demo kraten</w>
D ub
Croati a</w>
Con ver
Christ op
C re
C am
Bus iness</w>
Bur g
Bra sili
Br and
Bes on
B ill</w>
Aut om
Au th
Au ff
Ass ange</w>
A ssi
3 50</w>
über nehmen</w>
ö sen</w>
í k</w>
è re</w>
zeu g</w>
zentr um</w>
z immer</w>
y e</w>
y be</w>
wu chs</w>
writ e</w>
we aring</w>
vor stellen</w>
ver mei
v il
ur ing</w>
ur in
tra g
tour ists</w>
top ic</w>
tic ally</w>
ten der</w>
t y
stu dies</w>
st ür
so dass</w>
sion al</w>
si erung</w>
sel y</w>
se kre
schl uss
sa ve</w>
s ory</w>
s elling</w>
s ein
ru he</w>
richti ge</w>
ran g</w>
r ö
prosecut or</w>
ot t</w>
order ed</w>
opposi te</w>
oh len</w>
nah e
my self</w>
mittl erweile</w>
mi sche</w>
men sch
magaz ine</w>
m i</w>
lo sigkeit</w>
li ghts</w>
land -
komp li
is on
inj uries</w>
import ance</w>
ili ties</w>
ho ffen</w>
h n
größ eren</w>
ger aten</w>
geh ol
gather ed</w>
gar den</w>
f tung</w>
f it
exper im
exhi bition</w>
err t</w>
erkan nt</w>
dür fte</w>
demand ed</w>
dar k</w>
d ner</w>
cri tics</w>
corpor ate</w>
contro versi
con ven
cht ung</w>
car ds</w>
c ateg
beg rü
be ur
ban king</w>
au l
att acked</w>
angeb oten</w>
an er</w>
am ed</w>
ad op
achie ved</w>
ach es</w>
Zin ss
Zei traum</w>
Weihnach ts
W un
Veröffentlich ung</w>
Verfass ung</w>
Ver bess
US- Dollar</w>
U p</w>
Telef on</w>
T un
T our</w>
Sü den</w>
Strateg ie</w>
St am
Sit zung</w>
Sit z</w>
Sen der</w>
Re cht
Re chn
R oo
On ce</w>
O x
Ne vertheless</w>
Mississipp i</w>
Mis s</w>
Mi ke</w>
M T</w>
L ü
Karl s
K auf
K anz
Inter ne
Instit ut</w>
Industri e</w>
Indi a</w>
H igh
Grund lage</w>
Führ ungs
Europä ische</w>
E very
D utz
C ub
Australi an</w>
Aus stellung</w>
Aus sagen</w>
An y
Alex ander</w>
Al di</w>
A BC</w>
äl ter</w>
wi de
w ings</w>
vol le</w>
ver n</w>
ut ely</w>
ubschrau ber</w>
tro ll
tra f</w>
tol l</w>
tar ge
tag s
suff ering</w>
stän dige</w>
str ö
st y</w>
spr ung</w>
sm us</w>
simp le</w>
si t</w>
sh ausen</w>
sel n</w>
se ats</w>
sch lag
sch ar
sa d</w>
s core</w>
ri t</w>
regi ster</w>
re vi
re placed</w>
re mark
pre -
por tra
pla ys</w>
p up
ou d</w>
organ i
on t</w>
on om
of -
mi se</w>
mex ikan
lok alen</w>
leb te</w>
l ten</w>
ki ds</w>
ken nen</w>
k g</w>
jähri ge</w>
it i</w>
inter es
head s</w>
he ar
hand le</w>
h am
gest immt</w>
ger te</w>
gefahr en</w>
frü h</w>
fre und
fa vour
exist ing</w>
er lit
entwick eln</w>
disp ute</w>
ding t</w>
der zei
d ney</w>
cro ss</w>
conc ept</w>
con vin
choo se</w>
chang ing</w>
ca .</w>
benef its</w>
bel ong
b ungen</w>
b ly</w>
b ill</w>
atur en</w>
at re</w>
appro ximately</w>
analy sts</w>
alisi erung</w>
ad el
Z immer</w>
Wir kung</w>
Waff en</w>
Ur teil</w>
Untersuch ungen</w>
Tig ers</w>
Schwi er
S oll
Rück gang</w>
Ro ger</w>
Ri odo
Reu ters</w>
Rett ungs
R oh
R igh
P ot
P ek
O ver</w>
Mü ll
Met cash</w>
M .</w>
Lou isi
L om
Kroati en</w>
Kl age</w>
K urs</w>
K rimin
H ü
Gu ang
Gefüh l</w>
Gaz a</w>
G ut
G ir
Er höhung</w>
El li
Deutsch lands</w>
D o</w>
Champi on</w>
Ch ief</w>
Californi a</w>
C le
Bran che</w>
Bil dungs
Bet rieb
Ber g
Be obach
Bav aria</w>
B ou
B is
A y
9 .</w>
zwei mal</w>
win den</w>
wichti gsten</w>
vill age</w>
vi rus</w>
ver treten</w>
ver standen</w>
up on</w>
unter sucht</w>
un ge
un employment</w>
u d</w>
titu de</w>
ti erten</w>
thin king</w>
th es</w>
terror ist</w>
t t</w>
str en
ste he</w>
star ten</w>
stand ard</w>
st iegen</w>
st able</w>
serv ation</w>
sch utz
s or</w>
rä sident</w>
rup t</w>
richt ungen</w>
re sources</w>
rail way</w>
proce dure</w>
pro hi
plan et</w>
pic tures</w>
ph ase</w>
per sons</w>
per fe
or -
on ds</w>
offizi elle</w>
offen bar</w>
mär kte</w>
mo tion</w>
mo dern</w>
merk samkeit</w>
me tho
ma ßen</w>
m än
lin i
li ge</w>
l es
know ledge</w>
k ä
j ing</w>
inter net</w>
in ations</w>
imm igrants</w>
ho u</w>
h äuser</w>
h o</w>
h ne</w>
gesch ich
gem el
ge g
fun ds</w>
fru it</w>
free dom</w>
fol low</w>
exer cise</w>
et ings</w>
er fahren</w>
eig net</w>
din ner</w>
di rektor</w>
den cy</w>
defin itely</w>
deci de</w>
de fic
d ged</w>
cover ing</w>
constitu tional</w>
conduc ted</w>
com fort
chine sischen</w>
c m</w>
bestimm te</w>
b ags</w>
au ßer</w>
ati v
ass y</w>
artic le</w>
am y</w>
am ing</w>
allo ws</w>
al tung</w>
adverti sing</w>
Zei chen</w>
Tes la</w>
T ren
T am
St är
Sp iegel</w>
Sor gen</w>
Schau spiel
S ani
S C
Ro ck
Ro ber
Rek ord
Reg isse
Reak tion</w>
Re gel</w>
Rau m
R äum
R ome</w>
Präsidentschafts kandid
O rig
O -
Num mer</w>
Neu e</w>
Mon tre
Milli on</w>
Milli on
Medi cal</w>
Me da
Ma ß
M eine</w>
Lu ft</w>
Li ver
L im
Ham as</w>
Geschäf te</w>
Ge wal
Flüchtling s
Flug hafen</w>
F ed
En gagement</w>
Ein igung</w>
Ein fluss</w>
E R
Dah er</w>
Da zu</w>
D ut
D u</w>
D r</w>
D im
D em</w>
D F
Chair man</w>
Cap ital</w>
CE O</w>
Bo den
Bei jing</w>
Be für
B la
B .</w>
Ab schluss</w>
9 .
5 9</w>
5 8</w>
ä ts
zw öl
z ten</w>
wer ke</w>
war nt</w>
w elle</w>
virtu al</w>
vi e</w>
verfol gen</w>
ussel s</w>
uni ties</w>
ub le</w>
tschech ischen</w>
tro ops</w>
tri g
th a</w>
tem por
tain ment</w>
stär ker</w>
stab ility</w>
sit ting</w>
sing ing</w>
sil ence</w>
si x
si ght</w>
sent ence</w>
sel ten</w>
se emed</w>
se eing</w>
schlä gt</w>
schedul ed</w>
sch lossen</w>
sch la
sc ale</w>
sa fe</w>
repor ters</w>
rema ining</w>
rel ations</w>
re u
ra c
purch ase</w>
präsen tiert</w>
provi des</w>
pro vo
pro vince</w>
or row</w>
ong side</w>
o dy</w>
ner ship</w>
ne ar
n ütz
mög licht</w>
moun tain</w>
mom ent
meas ure</w>
manag ing</w>
ma ß
ma il</w>
le bt</w>
k n
italien ischen</w>
is land</w>
inter ess
individu als</w>
in t-
in stance</w>
in flation</w>
immun e</w>
identi fi
ic o</w>
happ ens</w>
gre w</w>
gi g</w>
gesch ehen</w>
ga p</w>
g ruppen</w>
g ie</w>
fo unded</w>
fac t
extrem ely</w>
et a</w>
erle i</w>
er neu
er möglicht</w>
electron ic</w>
e an</w>
distri bu
demokrati sche</w>
democra tic</w>
demand ing</w>
cro ssing</w>
compens ation</w>
bring ing</w>
bekan nte</w>
be wegen</w>
be suchen</w>
be handelt</w>
at tet</w>
appro val</w>
and ed</w>
achie ve</w>
absol ut</w>
Wik ile
Vi enn
Val ent
Tschech ien</w>
T um
T ot
St ev
Spit zen
Sch ad
S au
S am</w>
R und
Publi c</w>
P om
Netz werk</w>
N om
Mon ti</w>
Mis sour
Louisi ana</w>
L ich
Kon rad</w>
Justi z
J ord
J es
J ak
Islam ic</w>
Ini ti
In fe
He ath
F as
Europ as</w>
E ing
E ff
Ch e
Br ussels</w>
Besu ch</w>
Ben utz
Bei de</w>
Bay ern
B as
B ak
Auf merksamkeit</w>
Ankl age</w>
Anhän ger</w>
Ad minist
5 4</w>
4 4
3 8
199 4</w>
199 1</w>
überzeu gt</w>
ör tlichen</w>
zeich nung</w>
z we
weiter es</w>
wei te</w>
w ou
veröffentlich ten</w>
ver zi
v on
us -
um s
tou ch</w>
to wns</w>
territ ory</w>
temper atures</w>
suggest ed</w>
stol z</w>
st euern</w>
spokes woman</w>
sp an
sor gte</w>
secre tary</w>
schrei bt</w>
sch reck
sch e
sam mel
s ungen</w>
s ort</w>
s atis
ris ks</w>
ri chter</w>
requ est</w>
rel ativ</w>
regel mäßig</w>
radi o</w>
pro ve</w>
pret ty</w>
poin tment</w>
physi cal</w>
persön lichen</w>
per spective</w>
p sy
ordin ary</w>
ob lig
o vic</w>
notic ed</w>
nach mittag</w>
mo tiv
mitg lied</w>
mar t</w>
lo ad</w>
kürz lich</w>
kriti siert</w>
kon kre
kl er</w>
im pres
ho ffe</w>
h ot
govern or</w>
gewi sse</w>
g oods</w>
g as
fin ish</w>
f an</w>
eu ert</w>
ett a</w>
ess ed</w>
ern s
en i
ell es</w>
electri c</w>
eff ek
dre ht</w>
disc ussions</w>
dan ger</w>
cri ti
comple x</w>
communic ation</w>
coff ee</w>
clo thes</w>
circum stances</w>
ch st
ch est
c er</w>
ar ms</w>
and a</w>
an gen
altern ative</w>
alleg ed</w>
ad ds</w>
accept able</w>
Zentr um</w>
W ill
Vor teil</w>
Verletz ung</w>
V oll
Um fragen</w>
Sü dafri
Strei t</w>
Stati sti
St and</w>
Spra che</w>
Spa ß</w>
Sp ann
Schwar z
Sch lü
S how</w>
Riodo ce</w>
Pani ai</w>
P ac
Ober sten</w>
Ob am
O P
Mo un
Mexic an</w>
Men sch</w>
Ma in
M ak
Kredi t
Kar te</w>
K rä
Jugend lichen</w>
Gesetz es</w>
Gemein den</w>
Ge sicht</w>
Gal erie</w>
F it
F ein
E A</w>
Dav is</w>
C ou
C atal
Bu ff
Be weise</w>
B ron
B ol
Austri an</w>
Aus land</w>
Ar zt</w>
Al les</w>
A ir</w>
9 4</w>
9 00</w>
-jähri ger</w>
ö se</w>
zu zu
yo ur
wiederhol t</w>
we ather</w>
verstän dlich</w>
v ements</w>
unser em</w>
un able</w>
u n</w>
u l</w>
to ward</w>
ti sch</w>
surro unding</w>
sum ed</w>
suggest s</w>
su icide</w>
sto ß</w>
stan z</w>
st off</w>
st ie
sor gung</w>
son g</w>
sch utz</w>
sch einen</w>
s m</w>
s cor
ri chtet</w>
regi on
reag ieren</w>
re presents</w>
pro mise</w>
per cent
par king</w>
p en</w>
ou red</w>
or i</w>
oper ator</w>
o es</w>
normal erweise</w>
no wn</w>
no body</w>
ni s
mot or</w>
minist ry</w>
med al</w>
m ut</w>
m ari
lä sslich</w>
li ste</w>
lei den</w>
le c
l ass</w>
k u
j or
j emals</w>
it es</w>
inte gration</w>
institu tions</w>
ini eren</w>
hän dler</w>
hei mischen</w>
head quarters</w>
har mon
gro w</w>
gi o</w>
ge dacht</w>
g utes</w>
g ungs
fin ding</w>
fel low</w>
fac es</w>
f assen</w>
ev ol
es i</w>
erns thaf
er möglichen</w>
eng ine</w>
em y</w>
em in
ell ers</w>
ed ly</w>
dri ven</w>
discuss ed</w>
dies el</w>
di s</w>
di on</w>
da durch</w>
coun ter</w>
conne cted</w>
che cks</w>
ch teten</w>
bro ken</w>
bi o
besch lossen</w>
ber echti
be we
be mü
b ark
b ahn
av i</w>
au strali
atten ded</w>
assi stance</w>
apart ment</w>
alleg ations</w>
ali ge</w>
ad vice</w>
a bet
Zeu gen</w>
Z eh
Wäh lern</w>
Wun sch</w>
Whe ther</w>
Wer k</w>
War ren</w>
Twe sten</w>
Tran s
Sy dney</w>
Stra ft
Stellung nahme</w>
St ro
Sim on</w>
Sch ütz
Sch utz
S ul
S eb
S A
Ru h
Ru f</w>
Righ ts</w>
Provin z</w>
Protest e</w>
Pro bst</w>
Pra xis</w>
Pel ta</w>
P sych
P ru
P ass
Off en
O li
Nom ini
Nach fol
Montre al</w>
Medi kam
McC ain</w>
Mar t
Mar c
Kriti ker</w>
Kommun ik
Kl aus</w>
Kh mer</w>
K elly</w>
K all
Ju an</w>
Ivan ov</w>
I N
Gra ham</w>
Gesetz es
German s</w>
Freu den
Fil m
Erei gnis</w>
Er war
Elek tro
Ein druck</w>
Dü ssel
Dre i</w>
Democ rats</w>
D ep
Co e</w>
Chri s</w>
Bil dung</w>
Bet ei
Ban k
BM W</w>
B rief</w>
B at
Aut of
Ari z
Ar n
An bieter</w>
A dri
A .</w>
6 9</w>
3 5
á n
zwei fel
zurück ge
z hou</w>
z ar
y l</w>
wor st</w>
wh ere
wel ches</w>
war f</w>
w esen</w>
w elt</w>
w alls</w>
vie wed</w>
verpflich tet</w>
verfol gt</w>
ver ty</w>
ut ed</w>
uni ons</w>
un mittel
un den
tu rel
tour nam
ti cket</w>
tel eph
teil s</w>
t ough</w>
supp ly</w>
suff ici
sub sequ
stän digen</w>
stru cture</w>
ste te</w>
stati st
star ts</w>
ss er</w>
sp anischen</w>
sozi ale</w>
som it</w>
sol e</w>
sh el
schri ft</w>
sch u
sanc tions</w>
republikan ischen</w>
reg ard</w>
recor ded</w>
re ments</w>
re chts</w>
qui di
pro vin
pos sib
po l</w>
plötz lich</w>
opport unities</w>
nom inee</w>
ni emals</w>
n ungs
n or</w>
n ommen</w>
mi d-
mel den</w>
medi z
m and</w>
lo w-
lie fer
lei hen</w>
le ads</w>
lau en</w>
lass ung</w>
k illing</w>
initi ative</w>
ide as</w>
hil ft</w>
head ed</w>
gh ted</w>
gan gs</w>
frau d</w>
fin dings</w>
fer red</w>
eth ni
ent weder</w>
ent deckt</w>
enh agen</w>
en ess</w>
dür f
di sche</w>
di enen</w>
denti n</w>
den kt</w>
dec ade</w>
d ges</w>
controversi al</w>
contra st</w>
comfort able</w>
clo sing</w>
cli ents</w>
cer em
cap tain</w>
bu ying</w>
bi a</w>
bestimm ten</w>
berei ch</w>
ber n</w>
be deut
be comes</w>
ban k
awar ded</w>
aus ch</w>
at on
al it
al bum</w>
aktu elle</w>
air line</w>
ad or</w>
ac u
a x
Ye ar</w>
Y u
Wer bung</w>
Welt meister
Wei ß</w>
We ge</w>
Vor stellung</w>
Uns ere</w>
Trot zdem</w>
Sti ll</w>
Sonn en
Se con
Schul d</w>
Regi on
Re chte</w>
P enn
P ack
Ox ford</w>
Orig in
Nic ol
Mer ce
M ir
Lu d
Lei tung</w>
L e</w>
Komment are</w>
K reis</w>
Jose ph</w>
J á
Inde x</w>
I T</w>
Hei mat
He alth</w>
Hand y</w>
G E
Frie d
Fran ç
Forsch ungs
Fol gen</w>
Finan zierung</w>
F äh
Erdbe ben</w>
Er st
E thiop
Demokrati e</w>
D eu
D au
Col or
Co sta</w>
C ra
Beru fung</w>
Beri chten</w>
Beri chte</w>
Be sitz</w>
B ie
Autof ahr
Aus einander
At lan
Ariz ona</w>
Al b
Aktivi sten</w>
8 3</w>
1 st</w>
. cz</w>
ör ung</w>
ä be</w>
vor her
vol u
viol ent</w>
ver ein</w>
us er</w>
unk nown</w>
under standing</w>
un ten</w>
ul timately</w>
tre at</w>
trans fer</w>
ti ker</w>
symbo li
streng th</w>
sor ti
son gs</w>
shor tly</w>
sha pe</w>
ser ving</w>
sekre tär</w>
ro ffen</w>
ri val</w>
ri ft</w>
regul arly</w>
re ta
re jected</w>
r ar
r ally</w>
purch ased</w>
pul led</w>
pro ud</w>
pro be</w>
practic es</w>
pa y
p t</w>
p lo
op eri
ol y
occup ied</w>
näh er</w>
ner v
n den</w>
n ames</w>
min e</w>
me da
mb ly</w>
ma ker</w>
län dern</w>
li mit</w>
l ots</w>
kon fron
kl einer</w>
kilomet res</w>
k ong</w>
k an</w>
j ur
j em
j ahr
ir ur
ir s</w>
in formed</w>
impro ved</w>
im pression</w>
il -
höh eren</w>
höh ere</w>
histor ical</w>
hel m</w>
ha fte</w>
h u</w>
gre ssi
gi gen</w>
genau so</w>
gegen sei
gebe ten</w>
ge ändert</w>
g n
fün f
fäh igkeit</w>
fli ghts</w>
f ts</w>
expec tations</w>
ex ist</w>
ern st</w>
erinn erte</w>
erfol grei
enth usi
en o</w>
ell en
el be</w>
ear th
drän gt</w>
di rek
descri bes</w>
deliver ed</w>
d um
d den
d ates</w>
d ated</w>
cy cle</w>
cre ation</w>
constitu tion</w>
conclu ded</w>
con sci
commun ities</w>
co ordin
ci ous</w>
cho sen</w>
ch ell</w>
bl ing</w>
bil d</w>
betra chtet</w>
beschul digt</w>
besch le
beobach tet</w>
beobach ten</w>
be zahlt</w>
be tr
batt le</w>
at ten</w>
ari sche</w>
an walt</w>
all ing</w>
ac ting</w>
Z igar
Z el
Wor te</w>
Wir k
Win d
Wi th
We gen</w>
We ch
Vide os</w>
Verein bar
V alley</w>
Um gebung</w>
U N</w>
To m</w>
T est</w>
Squ are</w>
Schwei zer</w>
S mart
Re volution</w>
Re gel
O der</w>
N ev
N ation</w>
N ah
Moo dy</w>
Mit chell</w>
Mich elle</w>
Medi en
M assa
Li v
Law rence</w>
L ord</w>
L at
Kontrol len</w>
Konfli kt</w>
K ürz
K ing</w>
K ing
K aff
J a
In c</w>
I -
Hot els</w>
Hong kong</w>
Ho f
Herausforder ung</w>
Heath row</w>
Gre ens</w>
Gewerk schaften</w>
Geschich ten</w>
G abri
Fre un
Dop ing-
D ev
Char ak
Ch en</w>
Car ter</w>
Büh ne</w>
Bo ard</w>
Beh örde</w>
B ren
B lu
B asi
B B
Auf tritt</w>
At mosp
Ar gum
An walt</w>
A h
A del
7 7
4 .</w>
1 -year-old</w>
zusätz liche</w>
wou ldn</w>
woh nern</w>
wi der</w>
wei b
w en</w>
vor sichti
vi erten</w>
veröffentlich te</w>
ul ar</w>
ul a</w>
tor al</w>
tic o</w>
t t
t st
ste el</w>
sp äten</w>
set z</w>
ro l
ro ck</w>
restauran t</w>
refer red</w>
read ing</w>
ra tions</w>
ra h
r as
qu ake</w>
propos als</w>
pro z
pro cess
pre h
ple as
pe ac
pati ent</w>
p ush</w>
p om
p fen</w>
p es</w>
oo d-
on going</w>
on able</w>
ni ce</w>
mu g
m ation</w>
lö sen</w>
lin ked</w>
lei tung</w>
le v
le ute</w>
lan e</w>
l or
l as
kümm ern</w>
kör per
kom me</w>
kl agen</w>
kamp f</w>
k rimin
in fe
igran t</w>
holi days</w>
hei ght</w>
h eben</w>
gro unds</w>
gr y</w>
glück lich</w>
gew ach
geschich te</w>
gesch äft</w>
geplan ten</w>
gen ehm
gel aden</w>
ge setz</w>
ga ined</w>
form ing</w>
for cement</w>
fem in
f red</w>
f ot
f la
f es</w>
estim ates</w>
es -
ersch einen</w>
erk ran
environ mental</w>
ent täu
ent gegen
emplo yed</w>
ehemal iger</w>
eg gs</w>
ef ul
disap pe
der ed</w>
defin i
defic it</w>
de di
de but</w>
de ad
compar ison</w>
colle ge</w>
co operation</w>
ck len
cau ght</w>
c les</w>
bin ation</w>
besch reibt</w>
ber ger</w>
be kam</w>
basi c</w>
back ground</w>
b lue</w>
att end</w>
at ori
arri ve</w>
ann t</w>
an genommen</w>
alisi eren</w>
ak er</w>
a w
Y et</w>
With out</w>
Wal d
W ur
W ADA</w>
Vertei digung</w>
Ver wendung</w>
Um satz</w>
UN -
Tur n
Tel e
T ests</w>
Staatsanwal tschaft</w>
St ars</w>
Sch al
Regi onen</w>
Regi erungen</w>
Re present
Re gen</w>
R A
P lu
O r</w>
N ie
Musi c</w>
Mr s.</w>
Mo de
Min n
L ob
L ag
Kor ruption</w>
Konz ern</w>
K lu
K au
K ateg
J ür
J en
Indonesi a</w>
In sel</w>
IA A</w>
Hum an</w>
H em
Gel e
F lam
Erfahr ungen</w>
Er wachsen
Disk ussion</w>
Di rek
CD U-
C L
Brü cke</w>
Bo x
Ber at
Bam berg</w>
Bad en-
B ay</w>
Australi en</w>
Auf sichts
As best
An kün
Al t</w>
Al ber
A li
3 6
199 7</w>
10 .
é s</w>
zwöl f</w>
zi pl
z wan
z ellen</w>
writ ing</w>
wirtschaft liche</w>
wei ten</w>
w ly</w>
verfü gt</w>
ver änder
val u
ur al</w>
uni que</w>
un usual</w>
umstr itten
um e</w>
tur no
tim ate</w>
threat ened</w>
thi as</w>
ta x
t elling</w>
su sta
su la</w>
stre am</w>
statt finden</w>
st al
speci alist</w>
sh e
schö n</w>
schul dig</w>
s bach</w>
rel atively</w>
reag iert</w>
ra tions
quot ed</w>
put ation</w>
phot o</w>
phen om
persön lich</w>
perpetrat ors</w>
percent age</w>
pack age</w>
p lot</w>
p ast
or in</w>
musi cal</w>
multi ple</w>
mitg lie
mil es</w>
man n
ma p</w>
ll te</w>
lie be</w>
li sted</w>
li kes</w>
lang sam</w>
kom mission</w>
kan adi
it a</w>
inten ded</w>
indic ated</w>
in ge</w>
hin gegen</w>
he at</w>
haup ts
hal f-
ha ven</w>
glob alen</w>
gi ant</w>
gew ähr
gesch lag
genann te</w>
gemel det</w>
geb ro
geb oren</w>
för dern</w>
fäl len</w>
frequ ently</w>
fra gten</w>
fo under</w>
fli cht</w>
fin ance</w>
ff er
fei er</w>
fe wer</w>
fe e</w>
erg än
er weiter
er s-
ent rance</w>
end gül
electri city</w>
el son</w>
eff ective</w>
durchschnit tlich</w>
dopp elt</w>
di ss
de v
de part
de aling</w>
dau ert</w>
d un
cre ating</w>
convers ation</w>
consum ers</w>
consider ing</w>
conclu sion</w>
compla ints</w>
compe te</w>
ch ron
car b
besch rän
berich ten</w>
benö tigt</w>
ben en</w>
be zieh
be fand</w>
b lu
b ahn</w>
astro p
ar med</w>
ar ch
ar ab
ap preci
an gry</w>
am o</w>
al i</w>
ad mit
actu al</w>
ack now
ab road</w>
ab a</w>
Zu schauer</w>
Zu schau
Z ü
Z iegel
Z ah
W enger</w>
Vor schlag</w>
Vide o
Verlu st</w>
Verbin dungen</w>
Ver sch
V ladimir</w>
V il
Th us</w>
Te am
Ta p</w>
T sun
T rän
Stim mung</w>
Stev ens</w>
St euern</w>
Soci ety</w>
Snapch at</w>
Sen i
Sch aden</w>
San ktionen</w>
Sa int-
Re b
R und</w>
R -
Produ ktion</w>
P ic
N ob
Me cklen
Mat thias</w>
M em
Ly n
Lud wi
Lou is</w>
Lon don
Liver pool</w>
Lie be</w>
L or
L i</w>
L et</w>
Künst ler</w>
Kre m
Ko rea</w>
K auf</w>
Ju lian</w>
J on
Inter essen</w>
Indi en</w>
IA A
I owa</w>
Hay ne</w>
H av
H aup
Gold man</w>
Fu j
Frie den
Fo x</w>
Fel d
F lei
F en
Ein nahmen</w>
Do w</w>
Dan ach</w>
Ch or</w>
C lau
C D</w>
C A</w>
C .</w>
Brü ssel</w>
Bet ra
Be kan
Autob ahn</w>
Aus bildung</w>
Atmosp häre</w>
Asi an</w>
Any one</w>
Ange klag
50 ,000</w>
3 7
199 0</w>
äuß erte</w>
zu ela</w>
wit nesses</w>
wat ching</w>
wa ves</w>
volunte ers</w>
verlan gt</w>
ve z</w>
v in</w>
v ast</w>
under way</w>
un clear</w>
türk ischen</w>
tz u
turno ver</w>
ttem berg</w>
ts un
trä gen</w>
trav elling</w>
tra fen</w>
tom orrow</w>
th ei
teleph one</w>
t le
t ells</w>
t ab
syl v
susp ected</w>
sub mitted</w>
sto ßen</w>
st ern</w>
spre cher</w>
spra chen</w>
speci fic
so zial
sicher lich</w>
si vely</w>
sh es</w>
set ting</w>
schätz en</w>
sch mer
s ätze</w>
s ank</w>
reach ing</w>
r d</w>
questi oned</w>
produc er</w>
prakti sch</w>
posi tions</w>
persön liche</w>
per form</w>
par tei
op h
ologi sche</w>
not e</w>
nor thern</w>
nen nen</w>
nahe zu</w>
m o</w>
ll ing</w>
letz tes</w>
law esi</w>
lab or</w>
konzentri eren</w>
ko v</w>
keep ing</w>
kan z
k al</w>
ju ana</w>
it ems</w>
imple mented</w>
im possible</w>
hum an
hol ung</w>
heb ung</w>
he f
ha ften</w>
h äusern</w>
gu il
gres sive</w>
great est</w>
gesch ätz
ges und
gemein samen</w>
gef äl
ge kauft</w>
g ere</w>
frü here</w>
friend ly</w>
franzö sische</w>
fest gestellt</w>
erzi elte</w>
ern t</w>
erforder lich</w>
er lei
ent lassen</w>
eng li
einzi gen</w>
e x</w>
e ds</w>
e da</w>
durch zu
dr außen</w>
de ep</w>
dden ly</w>
dar aus</w>
crow d</w>
cour ts</w>
chti gt</w>
c old</w>
c es
br on
blo cked</w>
bl ame</w>
best and</w>
began nen</w>
beau ty</w>
be gren
be enden</w>
aus geschlossen</w>
au en</w>
ash es</w>
ar i</w>
appro ach
app lied</w>
anti cip
ann ing</w>
analy sis</w>
al ongside</w>
absol utely</w>
a x</w>
Zentral bank</w>
X i</w>
Wikile aks</w>
West en</w>
Wei ße</w>
Vi elleicht</w>
Verwal tungs
Verbess erung</w>
Verantwor tung</w>
T raum</w>
Su lawesi</w>
Sit z
Se par
SP D-
S ports</w>
S and
Restauran ts</w>
Regisse ur</w>
Re präsent
Re guli
Pru itt</w>
Prin zi
Pre ss
Penn sylv
Parlament s
P y
P av
Nachfol ger</w>
N ations</w>
Min der
Mig uel</w>
Mid dle</w>
Met e
Mar ine</w>
M oh
M R
Köni g</w>
Kreu z
John ny</w>
Jahrzeh nten</w>
Jahr hunder
J ournal</w>
Inte gration</w>
I ran
I P</w>
Haf t
HI V-
H ände</w>
H un
Guang zhou</w>
Gr in
Glob al</w>
Fi j
En ter
E aton
E P</w>
Dre h
De fen
Ci ti
Brazi l</w>
Be sitz
Auf trag</w>
Angele genheit</w>
Al tern
Al -
8 1</w>
7 2</w>
10 ,000</w>
- and-
ück sichti
ü hr
ä le</w>
zeu gen</w>
wonder ful</w>
wirt schaft</w>
winn ers</w>
wieder um</w>
w ahl
vul ner
vo ices</w>
verursa cht</w>
ver lu
ur ban</w>
un it</w>
un e</w>
tin y</w>
th eit</w>
ten -
teil nehmen</w>
te sting</w>
te en</w>
t z</w>
stab ili
staat liche</w>
st ö
st lichen</w>
st ischen</w>
spek tive</w>
sm aller</w>
sicher heit</w>
setz ten</w>
sei tens</w>
schle chten</w>
s z
ro of</w>
ri k</w>
requ est
re turns</w>
re bel
ra tive</w>
r s</w>
provi ding</w>
pri ority</w>
po verty</w>
po unds</w>
per t</w>
per formed</w>
our selves</w>
origin ally</w>
on aire</w>
offizi ell</w>
neigh bour
near by</w>
municip ality</w>
mor tg
min or</w>
mem ber
mark ed</w>
m ates</w>
limit s</w>
lat z</w>
l ík</w>
kar a</w>
kan di
k ni
jo in</w>
it ants</w>
inte gr
ing er
in qu
ide al</w>
hop ing</w>
ha ir</w>
gro wn</w>
glau b
gl as</w>
gewach sen</w>
gete stet</w>
gesp errt</w>
gescho ssen</w>
gen utz
gel eh
g lo
g ig
follo ws</w>
fo undation</w>
fle xi
fa ir
fa chen</w>
f und</w>
f ing</w>
erzi elt</w>
ent ur</w>
ent schul
ent gegen</w>
en su
em e
em b
elec toral</w>
e chte</w>
do zen</w>
dem ands</w>
degre e</w>
de vice</w>
de si
de cken</w>
d ol
cour ses</w>
convin ced</w>
control s</w>
consu mption</w>
con vi
con ver
competi tive</w>
com mented</w>
chine sische</w>
champi on
ch u
cal m</w>
big ger</w>
besitz en</w>
b acked</w>
ausländi sche</w>
ausge geben</w>
au g
ast ian</w>
ar ran
app ly</w>
allo wing</w>
al lies</w>
ah nen</w>
acknow le
ach el
ac qui
a ward</w>
a .m.</w>
Wor ten</w>
W ag
Verhält nis</w>
Verb ün
Ver sich
Un der</w>
Um welt
U R</w>
Tran spor
Ter min
Techn ologie</w>
T ö
T onnen</w>
T isch</w>
T emp
T T
Sum me</w>
Stra fe</w>
Singap ore</w>
Separ ati
Selbst mor
Secon d</w>
S c
S ark
S D</w>
Ro m</w>
Ri v
R ub
Plan eten</w>
Person al</w>
Pac lík</w>
Or d
O hne</w>
Nach frage</w>
N ick</w>
Missour i</w>
Met ro
Ma izi
Lu ke</w>
Lit er
Lie fer
Lad y</w>
Krie gs
Kandid at</w>
K lim
Jugend liche</w>
Han s-
H ans</w>
Guardi ola</w>
Grün den</w>
Gol f</w>
G ran
G on
G a
F ru
F I
En d
Ein heit</w>
Dat en
Ch am
Bre tt</w>
Br and</w>
Bav arian</w>
B welle</w>
B illi
B asket
Aus gaben</w>
Arbei ten</w>
An trag</w>
An kara</w>
Abgeord ne
A val
6 0
- based</w>
über all</w>
Än derung</w>
zeu ge</w>
zentr ale</w>
z ün
wür fe</w>
wus st
win dow</w>
wechsel n</w>
w an</w>
vor läu
vertre ter</w>
versu chten</w>
versich ert</w>
verbot en</w>
ut age</w>
u se
tz utage</w>
tsun ami</w>
tournam ent</w>
tom s</w>
tion ally</w>
th row</w>
tel es
teach ers</w>
stim mt</w>
ste cken</w>
sta ke</w>
st ürz
st ück
spo t</w>
sp anische</w>
some what</w>
shou l
seek ers</w>
sci ence</w>
schn ei
schi enen</w>
schi cken</w>
sch ten</w>
sch ot
sa ch
ru led</w>
ro ut
represent ed</w>
recei ving</w>
re li
ra il</w>
ra id</w>
progra ms</w>
prepar ing</w>
pp en
pot enzi
ph ia</w>
other ap
offici ally</w>
offic es</w>
occ asi
neigh bor
n d</w>
mur der</w>
mem ory</w>
man age</w>
m po
m ess
lin ie</w>
lich em</w>
leng th</w>
la h</w>
kra ft
kom ple
klär t</w>
k op
insi sted</w>
inde ed</w>
in ated</w>
ill ness</w>
ih u
her um</w>
hel ps</w>
heal thy</w>
haupts ächlich</w>
h n</w>
graph ic</w>
gr and</w>
go al
geri chtet</w>
gele genen</w>
geb lieben</w>
g nisse</w>
g ged</w>
g .</w>
frei willi
fra g
forder ten</w>
for sch
fe ars</w>
fal sch</w>
f ungs
f led</w>
f ill</w>
expec ting</w>
es en
eri sche</w>
er setzt</w>
er scheint</w>
equ al</w>
ent schied</w>
ens es</w>
eil lance</w>
ec tively</w>
durch aus</w>
disc rimin
diffic ul
cro ss
critic ised</w>
control led</w>
consu mer</w>
consi ders</w>
comp eting</w>
colli sion</w>
co s</w>
co de</w>
cl ing</w>
chem ical</w>
charac ter
bul l</w>
brei te</w>
br ings</w>
br ands</w>
bo urs</w>
bis herigen</w>
bil den</w>
berei ten</w>
beg ins</w>
be gun</w>
be er</w>
autom ati
at edly</w>
ass er</w>
arri ving</w>
ari f</w>
and au
an ced</w>
al ised</w>
aff airs</w>
adv ance</w>
adel phia</w>
ac ken</w>
abet es</w>
Y an
Wh o</w>
W omen</w>
W ie
W es
W erk
Vor sprung</w>
Ver stän
Ver sion</w>
Tur ni
Tru ppen</w>
T ür</w>
T ory</w>
T ali
T V-
Sp ei
Sel bst</w>
Schwier igkeiten</w>
Sa chen</w>
S E
S C</w>
Ry der</w>
Regen sburger</w>
Re form</w>
Re alität</w>
R as
R an
Phil adelphia</w>
Ph ase</w>
Pf arr
Nach mittag</w>
N ame</w>
Me er
Lei t
Lan ger</w>
Lab our
L -
Kul tur
Kon zent
K ern
Ju dge</w>
Jahr hundert</w>
Hy poth
Hin blick</w>
Har t
Hal tung</w>
Gericht shof</w>
Georgi a</w>
G O
G M</w>
Fe li
F lä
F ast
Er mittler</w>
Er kennt
E sp
E duc
E Z
Di agno
D ei
Commun ity</w>
Color ado</w>
Cent com</w>
Car ol
Bundes regierung</w>
B y
B all</w>
Aus nahme</w>
Aus gabe</w>
Ankün digung</w>
Afri can</w>
A il
A ch
6 8</w>
50 .000</w>
5 1</w>
20 -
überrasch end</w>
ä n</w>
zäh lt</w>
zi erten</w>
zerstör t</w>
zei tung</w>
your self</w>
ymn asi
wide spread</w>
war nte</w>
vi erte</w>
vermei den</w>
ver wal
ver halten</w>
v ar
tä ts
tru th</w>
tru g</w>
tran spar
tra iner</w>
ti an</w>
ter y</w>
ter ed</w>
t ool</w>
sup posed</w>
sug gest</w>
su itable</w>
st ations</w>
ss on</w>
ss enen</w>
squ ad</w>
spra che</w>
spiel ten</w>
sho w
schwi er
schlä gen</w>
sa hen</w>
räu men</w>
ro utes</w>
ri sing</w>
restauran ts</w>
redu zieren</w>
re putation</w>
ra eli
push ed</w>
pur pose</w>
por tion</w>
poll s</w>
po le</w>
person nel</w>
pe st</w>
passi eren</w>
pass ing</w>
part ners</w>
over all</w>
obj ective</w>
o ks</w>
o d
o be
no -
n ations</w>
mu seum</w>
mit h</w>
me etings</w>
ma ster</w>
ma d</w>
lieb t</w>
lei d</w>
leg ten</w>
lear ned</w>
law yers</w>
la m</w>
kl asse</w>
kl ar
kit chen</w>
kein erlei</w>
k us</w>
k oh
jün gsten</w>
j et
is raeli
investi ert</w>
informi ert</w>
incre di
ig ten</w>
identi fied</w>
ich ten</w>
hosp itals</w>
hi ke</w>
hei rat
heav ily</w>
h ü
größ er</w>
gra ben</w>
gl ing</w>
gh ly</w>
gen des</w>
gegrün det</w>
gefähr lich</w>
gebro chen</w>
ge teilt</w>
ge sucht</w>
gan s</w>
g in</w>
fu el</w>
for get</w>
fol gt</w>
flu g
fall ing</w>
fac tor</w>
exc ep
et es</w>
erfül len</w>
enter ed</w>
ent lichen</w>
enjo y</w>
eng ag
el even</w>
ed ings</w>
ech net</w>
e ded</w>
e ast</w>
dro ve</w>
disku tieren</w>
dig ten</w>
differ ences</w>
di stur
di a</w>
desig ner</w>
dec lined</w>
de e</w>
d ollar</w>
com mission</w>
colle ction</w>
clo sure</w>
ch em</w>
ch eck</w>
certain ty</w>
celeb rated</w>
bet roffen</w>
behaup ten</w>
been det</w>
be kräf
be kommt</w>
b ol
b ility</w>
b ath</w>
b as
b alls</w>
aut umn</w>
ausge stellt</w>
auf s</w>
asse ts</w>
argu ed</w>
anschließ end</w>
ann es</w>
ange l</w>
an ese</w>
all eine</w>
al y</w>
agu e-
ad ul
acc o</w>
absol ute</w>
ab and
Zin ser
Z us
Wahr heit</w>
Vor gehen</w>
Vi zep
Ver kaufs
Valent ino</w>
V öl
U. N
Tim e</w>
Than ks</w>
T ol
T en
T atsächlich</w>
Step han
Stef an</w>
Schul den</w>
S even</w>
Ro ck</w>
Queens land</w>
Pf lan
Pennsylv ania</w>
Pek ing</w>
Patri ck</w>
Ot mar</w>
Or ts
Ob jek
O S</w>
New man</w>
Nat o</w>
Mesotheli om</w>
Mehr ere</w>
Medi cine</w>
Mat rat
Mand ela</w>
Man agement</w>
Maizi ère</w>
Ma j
Liv ing
Li ke</w>
L en
Kon ta
Ko re
Ken ne
K äufer</w>
K reis
K rei
Ju stin</w>
Jo e</w>
Ins gesamt</w>
I st</w>
I sa
Hän dler</w>
Hin weise</w>
He ad</w>
Haushal ts
Hau sh
H anno
H E</w>
Gele genheit</w>
Gabri el</w>
G ün
Funk tion</w>
For tun
Flu cht</w>
Fel steh
Fahrzeu g</w>
F alle</w>
Ex press</w>
EP A</w>
E x</w>
Dou glas</w>
Dal ai</w>
D y
D opp
D oc
D ek
D ank</w>
Cru ise</w>
Corn wall</w>
Compu ter
Co ach</w>
Chil dren</w>
Canadi an</w>
Botschaf ter</w>
Betei li
Besch werden</w>
Be wusst
Be denken</w>
B lue</w>
B ag
Athle ten</w>
Asi a</w>
Arbeitsp lätze</w>
Air bus</w>
Ab out</w>
A stron
A g
9 ,
8 2</w>
8 .
5 7</w>
2 50</w>
18 0</w>
ü m
ö ster
ähr ung</w>
zi erte</w>
zent ren</w>
zen ten</w>
woh l
wit z</w>
wichti gste</w>
wel chen</w>
wat ched</w>
vulner able</w>
vor ne</w>
voll ständig</w>
veröffent lichen</w>
verabschie det</w>
ver län
u kra
tre e</w>
tra ined</w>
tot ally</w>
ti ef</w>
th ou
terror ism</w>
symp toms</w>
surv eillance</w>
success or</w>
sub stan
su e</w>
stre ss</w>
stitu tion</w>
stimm te</w>
stat ements</w>
sta aten</w>
st ig
st ets</w>
st ausch</w>
so bald</w>
sitz t</w>
sh ots</w>
sei zed</w>
se ch
sch il
re z</w>
re venue</w>
re action</w>
re act</w>
pup ils</w>
prof ile</w>
priv aten</w>
pri mar
primar ily</w>
pos es</w>
poin ting</w>
pel ine</w>
p assen</w>
ov á</w>
ord able</w>
o ssen</w>
ni schen</w>
n es</w>
mo od</w>
mittel n</w>
men s</w>
mark eting</w>
man ner</w>
ma inten
m outh</w>
lux ury</w>
lob te</w>
leist ungs
l un
kün st
kul turel
komp lett</w>
kar ten</w>
k er
jud ges</w>
j um
inspi ri
inhab itants</w>
i as</w>
hol t</w>
hei m
h är
gi ge</w>
g äbe</w>
führ enden</w>
füh lte</w>
four -
form al</w>
fol genden</w>
fir st-
fil ed</w>
feh len</w>
fe der
fact ory</w>
f t-
f ers</w>
exp an
es sions</w>
es cap
ent ation</w>
en z
ein gesch
eful ly</w>
easi er</w>
e ding</w>
du le</w>
dra ft</w>
do gs</w>
dig ital</w>
di men
der ly</w>
del eg
d uty</w>
cur ren
complic ated</w>
colle ague</w>
cle an</w>
ci pl
cht es</w>
chan ces</w>
ch ain</w>
bri lli
bra ch</w>
besitz t</w>
besch ei
be stehen</w>
be sorgt</w>
be s
b n</w>
aus sehen</w>
aus reich
auf merk
at o</w>
arri val</w>
ange griffen</w>
an lagen</w>
am end
am az
al ism</w>
ad o
a dem
Zu g</w>
Z w
Yor ker</w>
Waff e</w>
W ales</w>
W .</w>
Vor berei
Vier tel
Veränder ungen</w>
Verein ten</w>
Unabhäng igkeit</w>
Ty p</w>
Tha iland</w>
Teil nahme</w>
Südafri ka</w>
Stu dent
Stat us</w>
Sonn tag
Sa ison
S ex
Ro ad</w>
Ri ver</w>
Res pe
Region al
Persön lichkeit</w>
Passag iere</w>
PR I</w>
Off izi
N av
More over</w>
Mei ster
Ma x</w>
M uni
Lei ch
Lehr er</w>
L ast
Kon sequ
Ko alition</w>
Jer emy</w>
Jan eiro</w>
J ack
Infrastru ktur</w>
IS IS</w>
Hö chst
Hot el
Hol z
Har v
Grin del</w>
Gleich zeitig</w>
Gipf el</w>
Ge gent
Ge danken</w>
Früh jahr</w>
Frie den</w>
Fo ot
Eis enb
Ein en</w>
Educ ation</w>
Eaton ville</w>
E s
Durch schnitt</w>
Dienst leistungen</w>
Dam on</w>
D oping</w>
Champion ship</w>
Ch urch</w>
C u
Bri dge</w>
Bes lan</w>
B oh
B ack</w>
Autom ob
Ail inn</w>
A v
A round</w>
9 5</w>
7 1</w>
7 0
7 ,
6 1</w>
3 ,000</w>
1, 5</w>
ätz en</w>
äl tere</w>
Über ra
Ä gyp
zäh len</w>
zw .</w>
zuneh mend</w>
z ög
yp top
y y
wer ten</w>
wen igen</w>
wa ve</w>
w ahr</w>
w ag
vie wers</w>
vi l</w>
verstär kt</w>
verfü gen</w>
ver glichen</w>
ver gleich
ven ess</w>
ung sh
tr end</w>
to x
tel ef
te ure</w>
taus end</w>
targe ted</w>
susp ect</w>
sur ve
suff er</w>
su ddenly</w>
su chten</w>
strug gle</w>
stra ight</w>
str itt</w>
ste ckt</w>
sta un
sp lit</w>
sor ry</w>
sle eping</w>
sil ver</w>
sie ge</w>
setz ungen</w>
serv ativen</w>
sen der</w>
sei tdem</w>
secon d
sch m
sch le</w>
s mart
rü stung</w>
repor ter</w>
rel atives</w>
refer ence</w>
redu ziert</w>
re present</w>
re la
re gre
ra m</w>
ra ft</w>
quot e</w>
push ing</w>
promot e</w>
program m</w>
pro sp
pri ze</w>
pom mern</w>
poli zei</w>
pil gri
perman ent</w>
pa yment</w>
pa ying</w>
organiz ations</w>
op posed</w>
occ asion</w>
neuest en</w>
nei ther</w>
neh m
ne tz
müs ste</w>
män n
mu tz
mor gens</w>
mm ing</w>
met re</w>
mainten ance</w>
m ingham</w>
lin ge</w>
li on</w>
li o</w>
lar ger</w>
lan ger</w>
kämp ft</w>
kur s</w>
kon ta
k üh
j o</w>
is se</w>
is o
is er</w>
investig ations</w>
interes siert</w>
im posed</w>
im mel</w>
hon est</w>
ho ff
histor ischen</w>
her steller</w>
head ing</w>
h l</w>
gra de</w>
gi schen</w>
geschaff t</w>
gel y</w>
gebil det</w>
geb or
fäl lig</w>
fre m
fol gen</w>
flu g</w>
fil ms</w>
fe atures</w>
extre me</w>
ev in</w>
eu r</w>
er innen</w>
end orf</w>
en berg</w>
e uro</w>
e ter</w>
e ce</w>
dre ss</w>
dre h
divi ded</w>
deci sive</w>
continu ing</w>
conc ert</w>
compani ed</w>
co very</w>
cl ari
ch air</w>
cerem ony</w>
bur gh</w>
bro ke</w>
br un
bli eben</w>
besch rieb</w>
berühm ten</w>
bekan n
beg rün
be zogen</w>
be trägt</w>
b zw.</w>
b at</w>
ast ics</w>
as i</w>
as -
angen eh
an des</w>
ak tiv</w>
ac tors</w>
Z ur
X avi</w>
Willi am</w>
Wik i
Welt meister</w>
Wech sel</w>
W ett
W agen</w>
Vor pommern</w>
Vienn a</w>
Verk ehr</w>
Ver dä
Un fall
Um ständen</w>
Tä tigkeit</w>
Techn ologi
T af
Syri an</w>
Sto ck</w>
Stand ard</w>
St aff
Spre cherin</w>
Sch ri
Sark o
S G</w>
Regi ster</w>
Ra j
R um
R ho
R at</w>
Prü fung</w>
Pro ctor</w>
Pra kti
P flicht</w>
P ena</w>
Ober fläche</w>
O mar</w>
O ld</w>
O DS</w>
N ein</w>
N E
Ministerprä sident</w>
Ministeri um</w>
Mel bour
Lu is</w>
Lop ez</w>
La den</w>
L .</w>
Kar l</w>
K n
K han</w>
K evin</w>
Inter nationalen</w>
Initi ative</w>
In formation</w>
In flation</w>
Ihr er</w>
Herr n</w>
He w
Hand el
H ubschrauber</w>
Gro ßen</w>
Gi b
Get rän
Frie dri
Fre y</w>
Fre unden</w>
Finanz krise</w>
Fi ve</w>
F alls</w>
Ethiop ia</w>
Eröff nung</w>
En sign</w>
EZ B</w>
E din
Düssel dorf</w>
Dien st</w>
Deu schle</w>
Del ta</w>
Defen se</w>
Dam ir</w>
Cru ises</w>
Comp any</w>
C y
Buff ett</w>
Bre men</w>
Bern d</w>
Bar ri
BM I</w>
B in
B V
Aut or</w>
Aus wahl</w>
Ar gent
Ange sichts</w>
An th
An spruch</w>
An griffe</w>
Adri an</w>
Ab teilung</w>
6 7</w>
5 ,000</w>
20 ,000</w>
17 .</w>
10 0
öh ne</w>
Ä thiop
zurück kehren</w>
zahl reichen</w>
writ es</w>
wie gend</w>
wen ig
wei ße</w>
wal king</w>
vorsichti g</w>
vertei digen</w>
val ues</w>
um fass
tren nt</w>
traff i
ten nis</w>
ten dlich</w>
techni schen</w>
taus ende</w>
ta thle
t ar</w>
stru ck</w>
sti sche</w>
sta dium</w>
st ages</w>
sol ar</w>
smo king</w>
si erten</w>
sexu ellen</w>
sever e</w>
sec ure</w>
se mi
schw äch
schul digungen</w>
schrei bung</w>
schle chte</w>
sch we
resi dential</w>
repor tedly</w>
ren g
rei cht</w>
re solution</w>
re plac
re forms</w>
quali fi
prohi b
produ ce</w>
politi sch</w>
po wers</w>
po und</w>
phenom en
perf ec
over night</w>
ot te</w>
organ ised</w>
oly mp
ol z</w>
offen sive</w>
neigh bours</w>
neh in</w>
nah me
mom ents</w>
mil k</w>
mer kt</w>
main tain</w>
m m</w>
m ate</w>
leb ten</w>
le g</w>
kontrol le</w>
konfron tiert</w>
ko w
ko re
ken nt</w>
k unden</w>
journal ist</w>
j ury</w>
j unior</w>
invol ving</w>
in ti
i sches</w>
herr scht</w>
hand ed</w>
hal t
ha i</w>
gu y</w>
gh ton</w>
gh s</w>
geb äu
funktion iert</w>
fre ut</w>
fortun ately</w>
fin de</w>
fiel ds</w>
fi ve-
f inger</w>
exten ded</w>
explo sion</w>
ex plan
er s
er geb
er b
enti rely</w>
ent lang</w>
enor m
end ar</w>
eli s</w>
eli min
ele gan
el i</w>
el derly</w>
eindeu tig</w>
eigen es</w>
ehr lich</w>
e c</w>
e ating</w>
e ast
drü ckt</w>
dro hen</w>
dre w</w>
dr y</w>
do kum
distribu tion</w>
dis cipl
dig it
diagno sed</w>
dev ast
deu tet</w>
determin ed</w>
deta ined</w>
deli ber
con cre
comb at</w>
citi zen</w>
cinem a</w>
chti ge</w>
cht lich</w>
ch ens</w>
camer a</w>
c igar
c af
bür ger
bus y</w>
bor ders</w>
bom b</w>
bo ards</w>
bet rieb</w>
besch rieben</w>
be hin
bark eit</w>
b bed</w>
associ ated</w>
ash ing</w>
ar do</w>
ap pl
ap art</w>
ange li
ali a</w>
ai de</w>
af raid</w>
ach enko</w>
ac companied</w>
ab en</w>
Yo ung</w>
Y our</w>
Wür ttemberg</w>
Vor der
Verlu ste</w>
V an</w>
U p
Tor pe
Tex t</w>
Tali ban</w>
Sän ger</w>
Strei t
Singap ur</w>
Separati sten</w>
Schw ä
Schließ ung</w>
Schl uss</w>
Sarko zy</w>
S tern
S har
S af
S ab
Rom ney</w>
Reak tionen</w>
R ol
R el
R BS</w>
Präsident en
Presse konferenz</w>
Plat ten
Pal est
Pal at
P ier
P hän
P ause</w>
Or ten</w>
Op posi
N ik
N ar
Mittwo ch
Mecklen burg-
Me tho
Me tern</w>
Mar ihu
Living ston</w>
Leich tathle
L ama</w>
Köni greich</w>
Kun st
Karls ruhe</w>
K lini
Jür gen</w>
Jose f</w>
Jord an</w>
J ose</w>
IA EA</w>
Höh ep
Hinter grund</w>
Hanno ver</w>
H ans
H ai
Groß teil</w>
Grie chen
Gre ece</w>
Gr ön
Gewerk schaft</w>
Geschäf ten</w>
Geri chts
Fuß gän
Fre und
Frau en
Fo undation</w>
Fl or
Fir men
Fei er
Ex change</w>
Er kran
Ein kaufs
E very</w>
E cu
Da y</w>
Char les</w>
Ch an
Caf é</w>
C ir
C BC</w>
Bü cher</w>
Bulg ari
Bud get</w>
Brasili en</w>
Bo sni
Bo is
Be wohner</w>
B rau
Aus druck</w>
Asyl bewer
Arsen al</w>
Ar m</w>
Ar ena</w>
Anzei chen</w>
Ak tu
Abgeord nete</w>
A z
A spek
9 6</w>
3 9</w>
Ä ra</w>
zü ge</w>
zu erst</w>
z abe
zabe th</w>
yo unger</w>
writ er</w>
wer ben</w>
wan ger</w>
w ächst</w>
verdi enen</w>
verbrei tet</w>
v .</w>
unter suchen</w>
unglaub lich</w>
under stood</w>
unbe dingt</w>
un ru
tä tig</w>
tw el
tw a</w>
tur ing</w>
tschech ische</w>
tru ly</w>
thro wn</w>
t war
t mund</w>
t licher</w>
stopp en</w>
stat e-
st unden</w>
st rie
sp ir
sk in</w>
sh ut
set ts</w>
sensi tive</w>
second ary</w>
sch au</w>
sch aden</w>
ruhi g</w>
reti rement</w>
requi rements</w>
rei ber</w>
rech net</w>
rec eption</w>
re y</w>
public ly</w>
prot ected</w>
proce edings</w>
pro secu
pro p
princip le</w>
pra ised</w>
pp t</w>
pos ure</w>
pos session</w>
politi scher</w>
politi cian</w>
pie ces</w>
particip ate</w>
p ft</w>
ot h</w>
or al</w>
on so</w>
ome tern</w>
nied rig
n one</w>
mus li
motor way</w>
mon at
ma cher</w>
lö sung</w>
ly n
lin ken</w>
l son</w>
krä ften</w>
kom mun
j ag
it h</w>
investig ators</w>
inspi red</w>
inqu iry</w>
ing s
increas es</w>
impres sive</w>
immedi ate</w>
il ton</w>
ig an</w>
ho her</w>
histor ic</w>
haus es</w>
h ell</w>
h ause</w>
gu ard</w>
gran ted</w>
gen ü
gen om
gen heiten</w>
ge startet</w>
g g</w>
fro h</w>
fol gte</w>
foc used</w>
fiel en</w>
feel ings</w>
fass ungs
far mers</w>
f low</w>
f lam
et en
erinn ere</w>
er leben</w>
er end</w>
er eig
ent stehen</w>
eng aged</w>
en di
en det</w>
em ber
el li
el ements</w>
ein gestellt</w>
echti gkeit</w>
eb ack</w>
e es</w>
e e
drin ks</w>
drin k</w>
destro yed</w>
dep lo
demon stri
del a
def ended</w>
def end
de stri
dau er
da y
d al</w>
cul ar</w>
cor ner</w>
cont em
classi c</w>
cl asses</w>
ck et
chti g</w>
ch ose</w>
categ ory</w>
bür o</w>
bot s</w>
blo cks</w>
bir th
besitz er</w>
ber ücksichti
bedeu ten</w>
be wegung</w>
be sucht</w>
be setzt</w>
b la
att or
ati schen</w>
asi de</w>
arre sts</w>
an te</w>
alo g</w>
all zu</w>
ali ve</w>
ali ties</w>
alco hol</w>
ak t</w>
aff ir
aff ect</w>
ab geleh
a da
Zin sen</w>
Z äh
Z ul
Z enti
Willi ams</w>
Welt krieg</w>
W u
W ich
W -
Vorstand s
Vorsitz enden</w>
Vor stand</w>
Vor jahr</w>
Vor aus
Vi ce</w>
V et
V ari
U.N .</w>
Tei len</w>
T im</w>
Städ te</w>
Stabili tät</w>
Spe cial</w>
Sen ior</w>
Sek unden</w>
Seb astian</w>
Schl uss
Sch nei
Sch aff
S outhern</w>
S mith</w>
Rück tritt</w>
Rus sen</w>
Rob in</w>
Rich t
Re z
R aff
Pro gno
Peter sburg</w>
Pal mer</w>
Pak ist
P M
P HE</w>
Ord nung</w>
O pen
Nie to</w>
Nat ur</w>
N as
Mr d.</w>
Mo urin
Mik ro
Mi et
Mecklenburg- Vorpommern</w>
Mark us</w>
Man fred</w>
Mac edon
Ma ier</w>
M ess
M ary</w>
Lau ter
L A
Kur z
Kun den
Kon troll
Koh len
Kall stadt</w>
Kab ul</w>
K ru
K im
K ent</w>
Jo anne</w>
Jap anese</w>
J ör
J im</w>
J ag
Is land</w>
Is lam</w>
Ihr en</w>
I O
Hil ari
Her z</w>
Her bst</w>
Hein z</w>
Ham ilton</w>
H immel</w>
H amp
Grün de</w>
Grü nen</w>
Gewin ner</w>
Ge gen</w>
Gar ten
G reg
G f
Fün f</w>
Frei heit</w>
Frei burg</w>
En th
Eli zabeth</w>
Ein schätz
E twa</w>
E state</w>
Dopp el
Die go</w>
D ue</w>
D ob
Compu ter</w>
Bunde stag</w>
Bu da
Bo li
Bir mingham</w>
Bie ber</w>
Ber liner</w>
Bau arbeiten</w>
BM A</w>
B ord</w>
B S
B -
Assi sten
Andre as</w>
Analy se</w>
Al li
Administ ration</w>
A ni
A dam</w>
50 -
199 5</w>
. 30</w>
üt end</w>
í n</w>
äum t</w>
zu künf
y el
win digkeit</w>
wach e</w>
wa ke</w>
wa days</w>
w ütend</w>
w illing</w>
w ettbewer
vorsitz ende</w>
vorge worfen</w>
visi ted</w>
verzi chten</w>
ver teilt</w>
ver an
unter schei
ub il
typ ical</w>
tri um
tim et
ther more</w>
ter ia</w>
t ome</w>
sy ri
su ed</w>
strä ger</w>
stol en</w>
sto ck
stam men</w>
st ücke</w>
st y
st euer
st ent</w>
st ein
spi rit</w>
sp it
sla v</w>
shi ft</w>
sh ir
sen s
sen de</w>
secon ds</w>
schließ t</w>
sc ri
s ang</w>
ru ms</w>
right- wing</w>
ri ff</w>
ri e</w>
ri age</w>
requ ire</w>
regel mäß
reco very</w>
ra ising</w>
prü fung</w>
promin ent</w>
pri se</w>
pre p
prep are</w>
posi tiven</w>
pos ing</w>
po st-
ple ased</w>
pe destri
p reis
or ben</w>
olog ist</w>
olo gen</w>
necess arily</w>
nam ens</w>
mit einander</w>
minim um</w>
materi als</w>
mari juana</w>
lo ch</w>
lat t</w>
l ück
kü ste</w>
kti v</w>
kon stru
k w</w>
j ene</w>
it -
infe ktions
in sul
in ski</w>
imag ine</w>
il len</w>
häu f
hän gen</w>
her um
her er</w>
hel ping</w>
h ielten</w>
guil ty</w>
gui de</w>
gran t</w>
gni s
gest orben</w>
gen i
gel ernt</w>
geh and
ge sti
ge fordert</w>
g ün
g al
fül lt</w>
fäh ig</w>
fi x</w>
fi a</w>
fel der</w>
f ährt</w>
f ly</w>
f liegen</w>
f at
extre m</w>
ex posure</w>
ex hau
estim ate</w>
errei chte</w>
erken nung</w>
ent liche</w>
drän gen</w>
dramati c</w>
do ors</w>
dien ste</w>
den heit</w>
demon stration</w>
del ines</w>
dedi cated</w>
de -
dar stellt</w>
dam aged</w>
d ation</w>
criti ci
consul t
compla ined</w>
cle an
champi ons</w>
c and
bri cht</w>
bre aks</w>
br ary</w>
bo y
bo ar
bir th</w>
beein trä
be ar</w>
aus schuss</w>
attra ctive</w>
att le</w>
are z</w>
any way</w>
ali en</w>
agen da</w>
accus ations</w>
acc es
ac ci
ab sur
a f</w>
Zwei ten</w>
Z or
Y es</w>
Wei ß
Wahlkamp f</w>
Vor teile</w>
Vor schriften</w>
Vi sion</w>
Veranstal ter</w>
Ven e
V is
Tsun ami</w>
Treas ury</w>
Tit el
Te en
Ta i
Stim m
Spra ch
Sp r
Sof twar
Serbi a</w>
Schul z</w>
Schie ds
Sam m
S w
S inn</w>
Ry an</w>
Ron aldo</w>
Rob oter</w>
Ro sen
R af
Qu ali
Pra g</w>
Por t
Plat ten</w>
Pla y
Organis ationen</w>
Op tion</w>
Nutz ung</w>
Nicol as</w>
Ni emand</w>
NA SA</w>
Mourin ho</w>
Milliar de</w>
Materi al</w>
Mann es</w>
M assen
Lom achenko</w>
Lei che</w>
Leb ens</w>
Le ague-
Labour -
L eh
L eben
Kra ft
Klei dung</w>
Kateg orie</w>
K no
Ju gend</w>
Je der</w>
J ur
Indonesi an</w>
I CE</w>
Hän den</w>
Her zen</w>
Has la
Har mon
H ir
Green land</w>
Gre mi
Gemeinder at</w>
Förder ung</w>
Fußball -
Franç ois</w>
Fot o</w>
Fa vor
F est</w>
Ein tra
Ein führung</w>
Eigent ü
East ern</w>
Donner stagabend</w>
Dokum ente</w>
Disk ussi
Dinosau rier</w>
Diagno se</w>
Com mer
Car los</w>
C er
C are</w>
Bör sen
B all
Autofahr er</w>
Ar my</w>
An ni
An gehöri
Al bert</w>
Aff airs</w>
Ab sicht</w>
A str
A FP</w>
7 9</w>
6 6</w>
6 4</w>
15 -
12 .
über nommen</w>
ü t</w>
äu ßer
än der</w>
än den</w>
äl teren</w>
Ä hn
zu gän
zi gen</w>
zeich nungen</w>
z ig
yy ip</w>
y ard</w>
wür dig</w>
wes halb</w>
wech sel</w>
wa cht</w>
w ü
volun tary</w>
volu tion
versich erte</w>
verfü g
ver ändern</w>
ver hand
ver al</w>
ve ter
v á</w>
v ali
ussi a</w>
unru hig
ungs weise</w>
un less</w>
un klar</w>
un fair</w>
u tions</w>
trot zdem</w>
tion ing</w>
ti l
ti ed</w>
th ick</w>
te am
ta il</w>
t reiben</w>
sü dlichen</w>
syst em
suc ce
su spi
st isch</w>
specific ally</w>
so genannten</w>
si ty</w>
si ster</w>
sh elf</w>
sh all</w>
set tle
scho ol
schn ell
sch lü
sch alten</w>
sammel ten</w>
s w
s outh
ro ll</w>
request ed</w>
requ ests</w>
rele v
recommen ded</w>
real ised</w>
ra d
r um</w>
r ein</w>
r are</w>
qu ick</w>
pul l</w>
pro -
present ation</w>
possib ly</w>
pil ot</w>
phot ogra
phenomen on</w>
part ly</w>
p ick</w>
on age</w>
o gen</w>
not es</w>
nom ination</w>
net t</w>
n ör
mittel s</w>
mitglie der</w>
mis sionen</w>
mis es</w>
mel det</w>
me th
mand ate</w>
ma ybe</w>
m te</w>
lu ck</w>
lok ale</w>
loc ations</w>
li us</w>
li st
li ked</w>
lar gely</w>
l ess
l ers</w>
kontrol liert</w>
kl are</w>
j un
italien ische</w>
is sen</w>
invest ments</w>
inv ited</w>
in k</w>
in c
hän gt</w>
hur t</w>
har m
han del</w>
hab er</w>
gun sten</w>
guaran tee</w>
gewi ssen</w>
gel t</w>
ge füh
ge fügt</w>
fun ction</w>
fun c
ful l-
fre sh
fl at</w>
fin gen</w>
fin als</w>
fe ed</w>
famili ar</w>
fa vor
f its</w>
exc eption</w>
ett ori</w>
er maßen</w>
er hoben</w>
en ab
elek tron
el er
einge führt</w>
easi ly</w>
e b</w>
dre hen</w>
disku tiert</w>
discrimin ation</w>
direc ted</w>
di r</w>
demonstr ated</w>
dem nach</w>
dan k
d ding</w>
cre w</w>
confir m</w>
concre te</w>
con test</w>
com preh
co ast</w>
civi li
ci lia</w>
chi atri
che z</w>
ch oc
caus es</w>
camer as</w>
bor g</w>
boo k
bet rieb
bemer kte</w>
belast et</w>
begeist ert</w>
be wahr
be fragt</w>
be droht</w>
b id</w>
b ay
ay a</w>
aus ger
att dessen</w>
antwor tete</w>
am in</w>
alo gue</w>
ak tion</w>
ai da</w>
administ rative</w>
ac cor
a is</w>
Zinss ätze</w>
Ziegel man</w>
Z ellen</w>
Wiki Le
Wieder auf
Wh it
Wei ter
Wahr schein
W o</w>
W inter
W ind</w>
W ill</w>
W erte</w>
W acker</w>
W A
Vor gän
Vf B</w>
Vereinbar ung</w>
Ver pflich
Ver letzte</w>
Um setzung</w>
Tre ffer</w>
Tie f
Th ough</w>
Ta yyip</w>
T au
Su n</w>
St attdessen</w>
Spit z
Sp on
Son ne</w>
Sie ger</w>
Sha w</w>
Serbi an</w>
Se veral</w>
Schlü ssel
Sch otten</w>
Sch lä
S us
S T
Ret tung</w>
Respe kt</w>
Reg ine</w>
Rec ep</w>
Re da
R ica</w>
R i</w>
Projek te</w>
Pr EP</w>
Pl ace</w>
O ro
Nor th
Nev ada</w>
Neu en</w>
N ahr
N S
Mün chner</w>
Mu eller</w>
Mor eno</w>
Minn es
Mil ch
Massa chu
Mark en</w>
Mann schaften</w>
Mac Donald</w>
M as
M af
M a</w>
Lu f
Lin d
Lebens mittel</w>
L ong</w>
L ev
Konkurren z</w>
Kongre ss
Kenne dy</w>
Ken ya</w>
K ath
Jo kow
Isra eli</w>
Invest ment
Innen minister</w>
Indu strie
In genie
Ih rem</w>
H all
Gu y</w>
Gl ück
Gil ead</w>
Gil dner</w>
Ger ü
Ger echtigkeit</w>
Ger ade</w>
Gab by</w>
G rupp
Fron t</w>
Freun din</w>
Fo rest</w>
Felsteh ausen</w>
FA A</w>
F ut
F our</w>
F ast</w>
F -
Exper te</w>
Ex plo
Erwar tungen</w>
Er press
En ergy</w>
Ein richtung</w>
Eff ek
Ed mund</w>
E p
E ch
Di ffer
Det ro
Da x</w>
D ri
D ettori</w>
Conver cent</w>
Commun ic
C lo
Bra un
Bor ussia</w>
Bl ut</w>
Bit co
Bi o
Bi er</w>
Bell amy</w>
Be frei
B ut
B lan
Ar chi
Anth ony</w>
Ant oni
Angeb ote</w>
An wes
An na</w>
An dy</w>
Akti en
Ak tionen</w>
A my</w>
7 4</w>
6 .</w>
2, 5</w>
199 6</w>
1 1
äu men</w>
är zte</w>
ä stin
zwei f
zu gunsten</w>
y an</w>
wir ft</w>
wil d</w>
wid ely</w>
wh el
wes entlich</w>
wer t
wel cher</w>
vor gestellt</w>
vor bei
vers al</w>
verein bar
ver kehrs
un möglich</w>
tsch rift</w>
tra vel
to il
to ff
tig ungs
ther ap
th or
te ste</w>
t less</w>
sätz lich</w>
susp ended</w>
super vi
suffici ent</w>
stät te</w>
stru ktur
stra h
st ones</w>
st antly</w>
spec t
sol cher</w>
sh ut</w>
semi -
se v
scre en</w>
schul digung</w>
schie ßen</w>
schaff te</w>
s u</w>
s inn
s hr
s ample</w>
ro bots</w>
rit ten</w>
risi ko</w>
resol ved</w>
republikan ische</w>
repe atedly</w>
religi ous</w>
regi stration</w>
recht lichen</w>
re volution</w>
re view</w>
re m
re lie
re construction</w>
re acted</w>
ra f</w>
r h
propos al</w>
pro m</w>
pf lege</w>
person ality</w>
peac eful</w>
p ap
p -
out put</w>
or ds</w>
olog ne</w>
ogra fi
noti ce</w>
nen nt</w>
ne ut
nach zu
n erin</w>
n de</w>
möglich st</w>
mo tivi
mi ert</w>
men te</w>
men de</w>
ma che</w>
m igration</w>
ly -
lo y
lo ans</w>
lin -
lei stung</w>
lea ves</w>
lau tet</w>
la d</w>
kriti sierte</w>
kommen s
koh ol
k auf</w>
it at</w>
is lam
inter ven
ill a</w>
ign ori
häuf iger</w>
ho h
h unt</w>
h asn</w>
gymn astics</w>
go s</w>
gewi cht</w>
gewal t
gel angen</w>
gef lo
gef ei
geb ühren</w>
ge worfen</w>
ge stri
ge dly</w>
g eren</w>
fundam ental</w>
fl ying</w>
fil es</w>
feh lt</w>
fast er</w>
fal se</w>
fac tors</w>
f onds</w>
f eu
f ach</w>
f abri
exp ects</w>
ex t</w>
ex posed</w>
establish ment</w>
establi sh</w>
equi pped</w>
ent deck
en ly</w>
en heit</w>
en forcement</w>
ein halb</w>
ei gh
ed ral</w>
dr it
disp lay</w>
dinosau r</w>
di r
di et</w>
den z</w>
den oun
def ense</w>
def end</w>
dec line</w>
de ck</w>
d an</w>
cu sto
correc t</w>
communic ations</w>
commission ed</w>
com ment
collap se</w>
collabor ation</w>
claim ing</w>
cer ti
c ut
c ep
bor ough</w>
bl ack
bet roffenen</w>
benö tigen</w>
benutz t</w>
be half</w>
be aten</w>
be ach</w>
bar er</w>
b at
außer gewöhn
ausgest attet</w>
auf hin</w>
attemp ts</w>
atholi c</w>
ath edral</w>
at ers</w>
ark s</w>
arbei tung</w>
ar ta</w>
applic ations</w>
apo logi
antwor tet</w>
ans wer
anon ym
an treten</w>
an lage</w>
an ces</w>
am ent</w>
alle l</w>
ag ers</w>
adul ts</w>
ac tress</w>
ac cur
abin et</w>
a pers</w>
Zu g
Z war</w>
Y M
Win ter</w>
Vor schläge</w>
Vol k</w>
Vo ice</w>
Vir us</w>
Verstän dnis</w>
Ver bot</w>
V el
Untersuch ungs
Tru st</w>
T anz
T ann
Su ch</w>
Stär ke</w>
Stephan ie</w>
Sof tware</w>
Sci ence</w>
Schä den</w>
Schauspiel erin</w>
Sch lag</w>
Sch il
S M
Rö mer
Ru he</w>
Ru by</w>
Ri esen
Reser ve</w>
Represent atives</w>
Re si
R and
R .</w>
Pre stige</w>
Plu s</w>
P es
N am
Mün ster</w>
Minnes ota</w>
Mi schung</w>
Menschen rechte</w>
Massachu setts</w>
Macedon ia</w>
M ou
M om
M ie
Lu k
Lin ke</w>
Li ed</w>
Le ft</w>
Lan de
Komment ar</w>
Kir chen
Kapit än</w>
K öl
K eine</w>
Je an-
Jahrzeh nte</w>
J ac
Im mer</w>
IG A</w>
H aut</w>
H E
Gü ter
Ges ell
Gen ehm
Gebur t
Geb r
Funk tion
Frei willi
Fel d</w>
F abri
Erinn erung</w>
Eintra cht</w>
Ed ward</w>
E is</w>
Dutz end</w>
Dut ch</w>
Dis zipl
Detro it</w>
Chan nel</w>
Champion s-
Ch al
Carol ina</w>
C op
C ologne</w>
C O
C I
Bundessta aten</w>
Bulg aria</w>
Ber ater</w>
Bel ar
Beh in
Auf gaben</w>
Ar mut</w>
An sichten</w>
An lage</w>
An erkennung</w>
All gem
A gen
8 4</w>
7 6</w>
6 8
5 9
4 9
4 50</w>
4 000</w>
3 3
20 .000</w>
19 0
0 4</w>
-S h
über tragen</w>
öster reich
ö ch
äuß ert</w>
ä ß
zin ischen</w>
zeich nete</w>
z el</w>
y- Hag
y-Hag borg</w>
ww w
www .
wei ch
we y-Hagborg</w>
wach st
w ages</w>
vi sible</w>
vi de
versu che</w>
ver such</w>
v ac
ur er</w>
unterschie dlichen</w>
unser es</w>
um zu
tä glich</w>
to ols</w>
to ber
tex ts</w>
ter s
techn ologi
t les</w>
symp ath
subsi di
stre cke</w>
stra tions</w>
stei g</w>
statist ics</w>
sta ying</w>
sta ats
st ir
st eig
sp ät</w>
sorti um</w>
son sten</w>
sol ch</w>
sk ills</w>
si ed
sel ection</w>
se ts</w>
se ek</w>
se ctors</w>
schul en</w>
schle chter</w>
sch usses</w>
sch eme</w>
sa chen</w>
s i</w>
s at</w>
ro cket</w>
ri son</w>
respon ded</w>
rec alled</w>
re par
re l</w>
ra tion
r ural</w>
proz enti
profi tieren</w>
produc ing</w>
produ ziert</w>
pro mp
presi dency</w>
ph il
per mitted</w>
pan el</w>
p um
over whel
organisi erten</w>
organi siert</w>
or ation</w>
on gau</w>
ol es
ob viously</w>
ob li
nt aus
norm ally</w>
newsp apers</w>
n ative</w>
mortg age</w>
mon um
mon etary</w>
mis s</w>
mi x
mer zi
mark s</w>
manag ers</w>
m mer
lo cked</w>
lin ing</w>
lie st</w>
letz ter</w>
leh nte</w>
le k
le ben
l ac
ko rea</w>
kar te</w>
ju di
ist isch</w>
investig ating</w>
inf ections</w>
in son</w>
ig nor
i Ph
hou se
hop ed</w>
hinter lassen</w>
herauszu finden</w>
hei tliche</w>
har dt</w>
han den</w>
h ung</w>
h ung
h its</w>
h all
gres sional</w>
gher ini</w>
gew innt</w>
gesp rä
ger ing</w>
ger ed</w>
gehör te</w>
ge sen
ga -
g ü
g ru
frei e</w>
fi gen</w>
fi es</w>
f lat
f esti
erzi elen</w>
erlit t</w>
er tes</w>
entsprech end</w>
enter tainment</w>
ent stand</w>
engine ering</w>
einf acher</w>
ei te</w>
eh lt</w>
eg al</w>
ef s</w>
educ ational</w>
ed ge</w>
east ern</w>
ear nings</w>
determin e</w>
desp er
der te</w>
der -
den den</w>
den de</w>
deli ghted</w>
de aths</w>
da f
d é
d aten</w>
con stantly</w>
col or</w>
co o
clo sely</w>
chter t</w>
chter stattung</w>
choc ol
ch tern</w>
ch l</w>
c i</w>
bro ad</w>
brei ten</w>
bon ds</w>
bli cken</w>
bi ke</w>
bi en</w>
bestä tigen</w>
bemer kt</w>
bac teria</w>
b low</w>
b lau
b a</w>
ay an</w>
ausländi schen</w>
aus gelöst</w>
auf nehmen</w>
ati e</w>
athle te</w>
astrop he</w>
assu red</w>
archit ect</w>
ar ity</w>
ange messen</w>
ange kommen</w>
an bieten</w>
am bul
ak ers</w>
aim ed</w>
ag an</w>
ad voc
acc eler
abgeleh nt</w>
a pe
Z ap
Woh l
Wi ese</w>
Wahlkamp f
W ürz
W ay
Vereinig ung</w>
Verbrau cher</w>
Val en
Ur sel</w>
Ur sache</w>
US D</w>
Torpe do</w>
Swe den</w>
Sup er</w>
St even</w>
Spon sor
Si x</w>
Sh arif</w>
Schließ lich</w>
Sch ongau</w>
Sch in
Sch en
S ingen</w>
S ier
S atz</w>
Reg ime</w>
Raj chl</w>
Qu ellen</w>
Pra ger</w>
Pet r</w>
Pal in</w>
P ear
P att
P ast
Ok tober
O ut
Nomini erung</w>
N ext</w>
N BC</w>
Moh am
Militär s</w>
Men gen</w>
Melbour ne</w>
Maß nahme</w>
Mark en
Mand at</w>
Lu ther</w>
Lu ise</w>
Lau ra</w>
Kü che</w>
Köni gs
Kre bs</w>
Konsequ enzen</w>
Ko ali
K rit
K eller</w>
Jokow i</w>
Jahrzeh nt</w>
J ury</w>
J ob</w>
J in
J ack</w>
Is ar</w>
Identi tät</w>
Ide en</w>
IM E</w>
Hon da</w>
H é
Grün dung</w>
Griechen land</w>
Gon z
Gegent eil</w>
Geb ieten</w>
G ül
G ymnasi
Fur thermore</w>
Fre eman</w>
Foot ball</w>
Finan zi
Fin ale</w>
Fij i</w>
Fed Ex</w>
Fak toren</w>
Faceb oo
F und</w>
Ex ecutive</w>
El ke</w>
Edin burgh</w>
E th
Dor tmund</w>
Der zeit</w>
Den k
De wey-Hagborg</w>
D it
Cor rea</w>
Christop h</w>
Chin as</w>
Cha os</w>
Bü ros</w>
Bru st
Bro w
Br un
Bi ble</w>
Beri chterstattung</w>
Ber kel
Ber g</w>
Bel ag
Be griff</w>
B rief
Auf enth
Au stausch</w>
Au ge</w>
Au e</w>
Associ ated</w>
As sad</w>
Arbei ter</w>
Antoni o</w>
An lass</w>
An kunft</w>
Amts zeit</w>
Al ters</w>
A wards</w>
A sh
8 9</w>
5 .</w>
201 9</w>
20 .</w>
198 9</w>
10 .000</w>
10 -
1. 5</w>
ün d
überzeu gen</w>
Überwach ung</w>
zu ständig</w>
zei chen</w>
wäl tin</w>
wel chem</w>
wehr t</w>
wal ked</w>
wa ste</w>
vor herigen</w>
vor aus</w>
vertei diger</w>
verring ern</w>
ver sprach</w>
ver mis
ver hält
ursprün glich</w>
un gen
un er
um gehen</w>
tä ten</w>
tro p
trau mati
tra gs
to b
ti le</w>
the atre</w>
th ilfe</w>
ter ing</w>
tag s</w>
ta ste</w>
t asks</w>
t ack
survi val</w>
städ ten</w>
stu dying</w>
stra tionen</w>
str ong
stellvertre tende</w>
squ e</w>
spür en</w>
sp ur
sie g</w>
sicher zustellen</w>
si mul
si eb
sexu elle</w>
ser vers</w>
separati sts</w>
secu red</w>
se u
se g
scho ssen</w>
schlim m
sani ti
sa v
s al</w>
rä sidenten</w>
ri vals</w>
ri ll</w>
ret ten</w>
resear cher</w>
rel ative</w>
re place</w>
re move</w>
re members</w>
re cken</w>
qu iet</w>
prü fen</w>
pro of</w>
pre mises</w>
poli tan</w>
poli c
plan es</w>
pi cked</w>
pas sion</w>
over come</w>
on er</w>
ograph y</w>
off enen</w>
new ly</w>
n ast
möglich keiten</w>
mut ual</w>
men den</w>
m age</w>
m ad
lit ter</w>
letz tendlich</w>
le gung</w>
le gend</w>
lang sam
kämp fung</w>
kurz fri
kre di
kontrol len</w>
kommen tierte</w>
k ts</w>
k shire</w>
k ill</w>
k ali
jah res
j ap
it ee</w>
it ation</w>
irgend wann</w>
institu tion</w>
in ary</w>
identi ty</w>
identi fy</w>
high way</w>
hand elte</w>
h it
ghten ed</w>
geschäf te</w>
gesch ei
ges unken</w>
genutz t</w>
gem ents</w>
gehol t</w>
geb ieten</w>
g ala</w>
funktion ieren</w>
forec ast</w>
flo g</w>
finanzi elle</w>
finan ziert</w>
fi l</w>
fer tig</w>
fe at
fail ure</w>
fac ts</w>
fa ke</w>
extra ordinary</w>
exist ence</w>
ex ce
ev alu
ern den</w>
erh ielten</w>
er gab</w>
enth ält</w>
ent wurf</w>
ent spricht</w>
ent en
enorm ous</w>
emb assy</w>
e ase</w>
dis covery</w>
der garten</w>
demonstr ators</w>
de posi
dam erikan
dam erika</w>
da -
d as
curren cy</w>
cur y</w>
cru cial</w>
crimin als</w>
convi cted</w>
conduc t</w>
con tain</w>
comp li
col our
co ast
cle ared</w>
ck ten</w>
celeb rating</w>
celeb rate</w>
carb on</w>
c tic</w>
c ash
bur y</w>
bre aking</w>
bre a
bei der</w>
beg inn</w>
been dete</w>
be unruhig
bar ely</w>
b rief
b ars</w>
b ach
aus schließlich</w>
aus gewählt</w>
aufmerk sam</w>
au n</w>
appar ent</w>
and o</w>
analy st</w>
amoun ts</w>
alle gedly</w>
ali zed</w>
al ts
ah u</w>
ah o
agen cies</w>
ade my</w>
addre ssed</w>
ach tet</w>
abge ord
a j
a he</w>
a ge
Zwe ck</w>
Zuschau ern</w>
Z ut
WikiLe aks</w>
Wi en</w>
Wat son</w>
Wach t
W ald</w>
Veränder ung</w>
Verantwor tlichen</w>
Ver träge</w>
Ver sicher
Ver fol
Urlau b</w>
Um gang</w>
UN O</w>
Twe et</w>
The ater</w>
Tha i</w>
Technologi en</w>
T ier</w>
T ier
T eu
T enni
Studi en</w>
Stu dent</w>
Ster nen
Sta dium</w>
St ab
Spiel s</w>
Sp en
Some times</w>
Soll te</w>
Serbi en</w>
Schwei gen</w>
Schwe ster</w>
Schri ft
Sau di</w>
Sach s</w>
S ev
S B</w>
Ru pert</w>
Ren amo</w>
Refer endum</w>
Rechn ungen</w>
Re fuge
Quali fik
Quadrat meter</w>
Qu elle</w>
Qu alität</w>
Prot est</w>
Produ ktions
Produ kt</w>
Pack ard</w>
P G</w>
Or te</w>
O sc
O pel</w>
Nation alen</w>
Mu se
Mor ales</w>
Merce des</w>
Mei len</w>
Mei len
Man che</w>
Ma sch
M auer</w>
M au
M ang
M agaz
Liby a</w>
Leist ungs
L av
L ater</w>
Kor respon
Ko sten
Kar ten</w>
Kanz lerin</w>
Kaff ee</w>
K y
K lit
K ell
K ei
K .</w>
J an</w>
Innen stadt</w>
Inde pen
Immobili en</w>
I II</w>
Hypoth ek
Hur ston</w>
H yp
H und</w>
Gu i
Gl oria</w>
G lau
Frieden s
For derungen</w>
For ce</w>
Flu g</w>
FI FA</w>
Entwick lungs
Emp lo
Ein heiten</w>
Eh emann</w>
Egyp t</w>
E t
E he
Dun dee</w>
Dub ai</w>
Dre am</w>
Dit ta</w>
Demon stration</w>
De sign</w>
D on</w>
Con ne
Com edy</w>
Bre m
Brazi lian</w>
Bra d
Bes or
Berei chen</w>
B us</w>
An lagen</w>
Am ne
A sy
8 0
6 2</w>
6 -
14 .</w>
1 ,000</w>
. m</w>
- up</w>
ün f
übri gens</w>
ähn lichen</w>
á š</w>
Überra schung</w>
zul ä
zi tierte</w>
zi tiert</w>
y n</w>
x x
wor thy</w>
wor ker</w>
wi es
wer en</w>
we sten</w>
wach sen</w>
wa ffen</w>
w asser</w>
vor handen</w>
vor gesehen</w>
vier tel</w>
vi ce-
verk auf</w>
val ent</w>
ut h</w>
use ful</w>
us alem</w>
unter gebracht</w>
unk te</w>
ungewöhn lich</w>
und -
um gesetzt</w>
u k
tun nel</w>
tre u
tre es</w>
tradition ellen</w>
tr aut</w>
tor -
to m</w>
ti ere</w>
ti ckets</w>
threat ening</w>
th e-
terri ble</w>
teach ing</w>
te stim
tain er</w>
t all</w>
swit ch</w>
swi mming</w>
susp ects</w>
supp lies</w>
su rely</w>
su n</w>
stu ck</w>
stru gg
stri e</w>
streng th
stor m</w>
step ped</w>
ste ten</w>
stam mt</w>
ssy st
spo ken</w>
sp in</w>
sp iegel
sp err
slo wly</w>
six th</w>
sev elt</w>
set tled</w>
secur ities</w>
scho ss</w>
sa ß</w>
s y</w>
s sig
s ought</w>
s and
s ac
räum e</w>
ru ft</w>
ro man
ro les</w>
ri sen</w>
ri g</w>
ri ders</w>
reve al</w>
resp ek
res ort</w>
refer ring</w>
rebel s</w>
re sign
rar ely</w>
ra cing</w>
qu ez</w>
qu e
program mes</w>
prof its</w>
pro gno
pre cis
precis ely</w>
practic ally</w>
pra ise</w>
po p</w>
pleas ant</w>
pl er</w>
perfec tly</w>
p ist
p fe</w>
p acked</w>
ott i</w>
ori ous</w>
oppon ents</w>
opini ons</w>
oper ated</w>
on i</w>
oc ean</w>
ob tained</w>
no ise</w>
ni sche</w>
net works</w>
nar row</w>
n ä
monit or</w>
mon th
mem ories</w>
me at</w>
manufactur ing</w>
lo west</w>
lo aded</w>
lin t</w>
lif ted</w>
lief erung</w>
lief ern</w>
lich t
let ters</w>
lan des
l v
kün fte</w>
kre bs</w>
kontrol li
kon tin
kom merzi
keep s</w>
k r
j azz</w>
j ail</w>
inter ior</w>
inte gri
institu te</w>
ing u
ing ers</w>
in nov
in ate</w>
höch sten</w>
hol te</w>
ho t</w>
ha st</w>
gi ert</w>
geschi eht</w>
ger ungen</w>
genom men
gel ang</w>
gebäu de</w>
geb rau
ge mi
ge ein
füh le</w>
fra u</w>
fe ature</w>
fas z
fanta stic</w>
fac ilities</w>
exc iting</w>
exam ined</w>
ex tor
ev acu
ern ity</w>
erläu tert</w>
er mu
entwick elten</w>
ent steht</w>
ent ry</w>
end or
emo tion
earth quake</w>
e dition</w>
disa ster</w>
di ct
derzei tigen</w>
depart ure</w>
demonstr ate</w>
de cor
dar stellen</w>
da hin</w>
custom er</w>
cover age</w>
contribu tions</w>
competi tors</w>
com man
cli ent</w>
cl ass
cht lichen</w>
chi p</w>
che ap</w>
champion ship</w>
cel otti</w>
cap able</w>
cal endar</w>
c rit
c list</w>
c ited</w>
c ents</w>
bo x
bo un
bil ater
bess eren</w>
ber ater</w>
benutz en</w>
bei getragen</w>
beeinflus st</w>
beeinflus sen</w>
beauftra gt</w>
beam ten</w>
be u
b lam
b atter
aut onom
aupt ungen</w>
auf re
auf gerufen</w>
ati sche</w>
assu me</w>
associ ations</w>
ass ault</w>
as sumed</w>
arti sts</w>
argum ent</w>
archit ec
ar zt</w>
ar d
ar chi
ap pointment</w>
ap pointed</w>
antwor ten</w>
an en</w>
amaz ing</w>
ali gen</w>
al arm</w>
akzep tieren</w>
ad ri</w>
ac an</w>
a stron
a in
a ar</w>
Wirk lichkeit</w>
Wel tre
Virg in</w>
Ver eine</w>
Unterneh mer</w>
US- Präsident</w>
Tur ner</w>
Tre ff
Ther efore</w>
T on</w>
T ob
T en</w>
Sun rise</w>
Student en
Step han</w>
Sta dion</w>
St au
Sp äter</w>
Sp enden</w>
Sk inner</w>
Ser ge
Schmer zen</w>
Schad en
Sch wan
Sch uss
Sch ritte</w>
Sch erer</w>
Sch ei
Sani erungs
Salz we
Salz hausen</w>
S öll
Roo sevelt</w>
Ro ss</w>
Rho des</w>
Rei sen</w>
Re du
Re d
R ight</w>
R ath
R T
R N
Que bec
Q adri</w>
Pro secut
Pri ze</w>
Pol en</w>
Po k
Plat t
Ph illi
Person al
Per spektive</w>
P it
P ent
P ass</w>
P M</w>
Oper ationen</w>
Nor thern</w>
No bel</w>
Nig eria</w>
Nieder sach
Nation ale</w>
NAT O-
N R
N A</w>
Mr s</w>
Moun tains</w>
Mo gherini</w>
Mittel punkt</w>
Mitglie dern</w>
Miss brau
Mich igan</w>
Mes se</w>
M üh
M angel</w>
M ah
M ack
Lit er</w>
L isa</w>
Kun st</w>
Konz ert</w>
Kim mich</w>
Kar toff
Kapit al
K rau
K le
K end
Jer sey</w>
Je doch</w>
Je de</w>
Je an</w>
Ja vier</w>
J ob
J i
J az
Institu tionen</w>
In nov
IO C</w>
IAA F</w>
Hur ri
Holly w
Hof mann</w>
Hoch schule</w>
Ho y</w>
Hin der
Hen rik</w>
Hand ys</w>
H ous
H ier
H A
Grün en-
Grün der</w>
Grön land
Grund stück</w>
Gri ff</w>
Geschle cht</w>
Geor gy</w>
Genehm igung</w>
G o</w>
G it
G -
Fün f
Fuj it
Freu de</w>
For um</w>
For t
Fla ke</w>
Fisch er
F inger</w>
Emp feh
Egyp tian</w>
Eben e</w>
E ss
Die ter</w>
Dev el
Deb üt</w>
Dal ey</w>
DF B</w>
Ch i
C atholic</w>
C B</w>
Bun dest
Bro oks</w>
Bran chen
Bla ir</w>
Best ell
Berei ts</w>
Benutz er</w>
Belag erung</w>
Bel gi
Bei trag</w>
Be au
Baden- Württemberg</w>
Außen minister</w>
Astr a</w>
Ange stellte</w>
An celotti</w>
Alex and
Al bum</w>
Akti e</w>
Air port</w>
Ai wanger</w>
Ab wasser
A th
A pp</w>
9 9</w>
8 ,
5 2</w>
4 ,000</w>
30 .</w>
30 ,000</w>
3 80</w>
3 .</w>
3 .000</w>
199 2</w>
198 8</w>
15 .</w>
ürz t</w>
ül ern</w>
üb lich</w>
ü bt</w>
öl le</w>
öff net</w>
ö die</w>
í a</w>
äußer st</w>
äuß ern</w>
zög ern</w>
zusätz lichen</w>
z eln</w>
z a
yptop han</w>
wün schte</w>
wär ts</w>
wor ried</w>
wor ld
wit ness</w>
where as</w>
wer k
wei chen</w>
we b</w>
wachst um</w>
w ine</w>
vor über
viel er</w>
vie w
vertei digte</w>
versich erung</w>
verschie den
vermu tet</w>
ver wei
ver trag</w>
ver heirat
ver fassungs
ver dä
ve get
ur ged</w>
tz en</w>
typ es</w>
tren nen</w>
tour ist</w>
top ics</w>
ti k
ti ges</w>
ter er</w>
ten berg</w>
te sti
tack le</w>
t y-
swi mmer</w>
survi ve</w>
stron ger</w>
stri ch</w>
stoff e</w>
stat ue</w>
stan de</w>
st öße</w>
spar tei</w>
spar en</w>
sich ern</w>
shar p
sh oot</w>
sen ken</w>
se chs
se as
scor ing</w>
schw em
scho ck
sch ee</w>
satis fied</w>
s op
s ar
resign ation</w>
repe at</w>
reduc tion</w>
reas onable</w>
re struc
ran king</w>
prosecut ors</w>
projek t</w>
pre served</w>
pre cher</w>
pl enty</w>
phil os
pf el</w>
pe ti
p reise</w>
p on
p end
ow ski</w>
ou ts</w>
other wise</w>
oppon ent</w>
ologi sts</w>
occ ur</w>
no vel</w>
neuest e</w>
neigh b
multi -
monit oring</w>
moment an</w>
ment ation</w>
mann schaft</w>
mach ine</w>
lu stig</w>
lo yal</w>
lo ssenen</w>
lig ent</w>
li ty</w>
li min
leb enden</w>
lab our</w>
l ung
klein ere</w>
kl ein</w>
kir che</w>
kil ome
keep er</w>
kandi dieren</w>
kanadi schen</w>
jo y</w>
jen ige</w>
ist en
is ol
investi eren</w>
invest ed</w>
inv est</w>
indic ates</w>
in folge</w>
in cur
illeg alen</w>
höh ungen</w>
hum or
ho eni
heu tzutage</w>
hervor ra
her gestellt</w>
geschätz t</w>
gel ungen</w>
gel eg
gel an
gefei ert</w>
geb oten</w>
gar anti
gan gs
ga de</w>
fül len</w>
fü llte</w>
fortun ate</w>
fir ma</w>
finan cing</w>
fi ge</w>
fi cial</w>
feat ured</w>
f ar-
explan ation</w>
expan sion</w>
ex press</w>
ev a</w>
euro pa</w>
est one</w>
essen ti
eröff nen</w>
erwäh nt</w>
erg reifen</w>
er setzen</w>
er mittelt</w>
ep ati
enti tled</w>
en dessen</w>
ell ent</w>
ein setzen</w>
eff ici
ec t
ear ned</w>
e gi
durch ge
drü cken</w>
dor fer</w>
dinosau rs</w>
dien te</w>
di en</w>
di am
der es</w>
depen ding</w>
deck ung</w>
de ten
dau erte</w>
d unk
cr ashed</w>
coun ts</w>
con fron
chocol ate</w>
chest ra</w>
chan c
challeng es</w>
cat ch</w>
ca p</w>
bur den</w>
brun n</w>
brei tung</w>
blo cking</w>
bewe gt</w>
berich teten</w>
bein ahe</w>
behaup tete</w>
beglei tet</w>
befür wor
be dürf
bau m</w>
bar ri
bab y</w>
b ischen</w>
b aller</w>
b a
awar eness</w>
ausreich end</w>
auf zunehmen</w>
auf nahme</w>
attor ney</w>
at -
ark t</w>
ar gue</w>
appe als</w>
any ahu</w>
anticip ated</w>
anst alt</w>
announ ce</w>
an sehen</w>
an ger</w>
an che</w>
ag gressi
ag entur</w>
ag ents</w>
aff air</w>
ad ult</w>
acknowle dged</w>
acces sible</w>
abge geben</w>
ab i
a ders</w>
Zu vor</w>
Zu ge</w>
Zei tungen</w>
Z e
Wettbewer bs</w>
Vi z
V eg
Tum lingen</w>
Tei le</w>
T ore</w>
T ar
T P</w>
Sz ene</w>
Symp tome</w>
Super cup</w>
Sum mer</w>
Ster ne</w>
Stand ards</w>
Staff el</w>
St ür
Sor ge</w>
Se attle</w>
Schütz en
Schwe den</w>
Sch ot
Rück en</w>
Re us</w>
Re formen</w>
Rau chen</w>
Rad fahrer</w>
Proble men</w>
Pre si
Po si
Par ti
Par ish</w>
P ope</w>
P ist
P hoeni
P ep
P C</w>
Op tionen</w>
Off ic
O thers</w>
Nor d</w>
Nieder lan
Net anyahu</w>
N iel
N er
N elson</w>
Mün ster
Mob ile</w>
Mein ungs
Meer es
M y
M ir</w>
Lu kas</w>
Lei den
Land kreis</w>
L ohn
L atin</w>
L ah
Kü sten
Kore an</w>
Konz ept</w>
Kol um
Kol li
Kil ometern</w>
Kenn t
K lä
K aliforni
J ubil
J on</w>
Invest ig
Inter essen
I H
H ä
H unt</w>
H allu
H ad
H acker</w>
Greg or</w>
Gf K</w>
Gesprä chen</w>
Georgi j</w>
General direktor</w>
Gemein schafts
Gaz prom</w>
G ad
Fujit su</w>
For mer</w>
For m
Fili alen</w>
Feuer wehr</w>
F al
F T
Er fin
Ein stellung</w>
Ein schrän
Ein richtungen</w>
Econom ic</w>
E missionen</w>
E ier</w>
E UR</w>
Dro gen</w>
Diskussi onen</w>
Dies el
Di vision</w>
Devel op
Da für</w>
D auer</w>
D C</w>
Cur r
Com mand</w>
C ross</w>
Bür gern</w>
Bru ce</w>
Boh em
Bir ken
Bil dern</w>
Bil d
Beteili gung</w>
Bel ast
Be weis</w>
Bab y</w>
B ig</w>
B ang
Aus schuss</w>
At tac
Assisten z
Arn old</w>
Arbeit geber</w>
Ara b</w>
An nahme</w>
An führer</w>
An dr
An ders</w>
Aktiv itäten</w>
7 .</w>
27 .</w>
2 20</w>
196 8</w>
- of-
übri g</w>
ö bel
ä gyp
Ö zi
Özi l</w>
Är zten</w>
Ägyp ten</w>
zwei t
zurückzu kehren</w>
zieh ung</w>
zi ge</w>
zi elt</w>
z h
z ent</w>
y en</w>
y day</w>
wo durch</w>
wi ss
wen det</w>
wechsel t</w>
weap on</w>
we alth</w>
wat ch
wachsen den</w>
wachsen de</w>
w un
vor gelegt</w>
voll kommen</w>
viol ations</w>
vin yl</w>
viel mehr</w>
verb andes</w>
ver zeichnen</w>
ver sprochen</w>
ver liert</w>
vacc inations</w>
unabhängi g</w>
ul ated</w>
u g
tö tete</w>
tol i</w>
ti ver</w>
ti erung</w>
thou ghts</w>
ther e
ter i</w>
teles cope</w>
ta bel</w>
sz ke</w>
sug gesti
su che</w>
stru ction</w>
strong ly</w>
sto cks</w>
stell ungs
st um
st euer</w>
spect ators</w>
sp ots</w>
sp ite</w>
so m</w>
sk ir
sk ep
sho fs</w>
shar k</w>
schön e</w>
schwieri ge</w>
s é
s ors</w>
s ers</w>
resi dence</w>
relev ant</w>
recogni sed</w>
rec ru
re sident</w>
quali fied</w>
qu anti
purch ases</w>
präsen tieren</w>
prot esti
plat form</w>
pit ch</w>
pilgri mage</w>
pay ments</w>
p ron
organis ationen</w>
olo ge</w>
oh nehin</w>
näch stes</w>
ni ght
ni em
nation wide</w>
mär kten</w>
modi fied</w>
mittl eren</w>
min ds</w>
militäri sche</w>
mi xed</w>
mes se</w>
medi zinischen</w>
med als</w>
mat tress</w>
ma ster
ma sch
lä ub
lä t
lu cky</w>
le ger</w>
le ft-
lau t
langfri stig</w>
kö mm
konzentri ert</w>
klär en</w>
kl ing</w>
kl en</w>
kl eines</w>
kir chen</w>
kein es
k ri
k lear
k e-
jewei ligen</w>
j ournal</w>
j et</w>
j an</w>
introduc tion</w>
inn en
il ing</w>
i d
hor ror</w>
hin aus
high ligh
hal ben</w>
ha d
h alls</w>
großar tige</w>
gren ze</w>
govern ing</w>
gi f
gest anden</w>
gemein same</w>
gef euert</w>
ge zahlt</w>
ge warnt</w>
ge trennt</w>
g on</w>
g is
freu en</w>
fi xed</w>
fei ern</w>
fa ith</w>
f ach
experim ent</w>
experi ences</w>
ex o
every where</w>
every day</w>
et tes</w>
ess ing</w>
es b
ersch üt
erläu terte</w>
er schienen</w>
er ror</w>
entwick lung</w>
emphasi sed</w>
ed -
du al</w>
droh ung</w>
dre ssed</w>
don ations</w>
dition ally</w>
dis orders</w>
di verse</w>
di t</w>
di sag
di o
di ert</w>
deu ten</w>
demo kraten</w>
deli ver</w>
dam ages</w>
cut ting</w>
critici zed</w>
contem por
confi dent</w>
concent ration</w>
conc e
com fort</w>
clo se
chter ung</w>
cht ungen</w>
ch est</w>
cen timet
c abinet</w>
bring ung</w>
brilli ant</w>
bre m
bre ch
bran che</w>
bra chten</w>
bo at</w>
bli oth
birth day</w>
bil der</w>
bel ei
b right</w>
b rief</w>
b itten</w>
b ills</w>
b ag</w>
auth ors</w>
ausge sprochen</w>
asi e
as st</w>
and s
an lässlich</w>
allgem einen</w>
ak u
ag s
aff ord</w>
advi ser</w>
advi sed</w>
abo li
ab sichtlich</w>
ab gesch
Z un
YM CA</w>
Wolf rat
Win dows</w>
Wer ner</w>
Wei tere</w>
Wal ter</w>
W ander
Vor haben</w>
Vol ker</w>
Vertre tern</w>
Ver zö
Ver s
Ver gewal
Techn olog
T hr
T ag
T IME</w>
Swe dish</w>
Stre am</w>
So zi
Sier ra</w>
Sicher heit
Sich t
Si de</w>
Sci enti
Schmer z</w>
Schal ke</w>
Sch ö
Sch ätz
Sch nee</w>
S til</w>
S per
S imp
S co
Räum e</w>
Russi ans</w>
Russ lands</w>
Ruh est
Riv alen</w>
R ande</w>
Prä sent
Program me</w>
Prinzi p</w>
Press es
Poli sh</w>
Phän omen</w>
Phili p</w>
Pau lo</w>
Par tie</w>
P un
P lei
P le
P ei
P A
Olympi asie
O h</w>
Not wen
Not t
Nas da
Nah en</w>
N etz</w>
N SA</w>
Mus har
Mo ore</w>
Mit tl
Mit t</w>
Mi ro
Menschen rechts
Marc el</w>
Mak si
Ma a
M und</w>
M ale</w>
M ahl
Län ge</w>
Lu st</w>
Leist ungen</w>
Le on
Lauter bach</w>
L oh
L em
L auf</w>
Kranken häusern</w>
Kongre sses</w>
Kon su
Ko ch</w>
Kat al
Kan sas</w>
K oll
K ni
K emp
Jer usalem</w>
Jak arta</w>
J ef
J ay
Isra elis</w>
Inter net
In stru
Im age</w>
I TV</w>
Heim at</w>
Hand lungen</w>
H M
Großbritanni ens</w>
Go d</w>
Gesetz geber</w>
Gehir n</w>
Gegen stände</w>
Gefüh le</w>
G y
G ates</w>
G M
Frankfur ter</w>
For schung</w>
Flei sch</w>
Feld berg</w>
Feh l
F rit
F air
En ergi
Einwander er</w>
E M</w>
D i</w>
D ach
D I
Comp ani
Ci vil</w>
Cham ber</w>
Catal an</w>
Cas a</w>
Bundest ags
Bundessta at</w>
Bundes kanz
Braun schwei
Blo ck
Bl as
Bewusst sein</w>
Bet roffenen</w>
Bet reu
Best imm
Berkel ey</w>
Beh auptungen</w>
Beg eist
Basi s</w>
Bar toli</w>
Ban ken
B oo
B ade
B N
Außen politik</w>
Automob il
Auth ority</w>
Auseinander setzung</w>
Auf grund</w>
Assistenz ärzte</w>
Arbeits losigkeit</w>
Angeklag ten</w>
Ange stellten</w>
Ander son</w>
An wälte</w>
Air lines</w>
Afgh an</w>
Ab end
AI DS</w>
A x
A vi
A l</w>
A ber
A b</w>
8 6</w>
7 -
6 -year-old</w>
4 5
3 D</w>
20 -year-old</w>
2 1.</w>
199 3</w>
199 0s</w>
19 .</w>
16 .</w>
12 .</w>
1, 2</w>
1 25</w>
1 .000</w>
ütz t</w>
über sch
ü ben</w>
öh nt</w>
är z
än g
ä den</w>
á vez</w>
zusätz lich</w>
zo genen</w>
zeh n
wün scht</w>
world wide</w>
wor l
won ach</w>
win dig
wh at
wel com
welcom ed</w>
wa ffe</w>
vor an</w>
verletz ung</w>
verdi ct</w>
ver bringen</w>
unter neh
ungs -</w>
um geben</w>
ukra inische</w>
u ph
twe et</w>
trans ferred</w>
tra ge
tr it
tr in
toil et</w>
tob acco</w>
thro wing</w>
thre ats</w>
the ory</w>
ter ror</w>
te ur</w>
te es</w>
sü d
suppor ting</w>
städ tischen</w>
stri ct</w>
str asse</w>
sti l</w>
steh ung</w>
sta b</w>
st ad
spor t
sp ru
sol ven
sing ers</w>
sign al</w>
si zed</w>
si eg
si ck</w>
she et</w>
sh ing</w>
sh aupt
sex per
sen ator</w>
se wage</w>
scienti fic</w>
schwier iger</w>
schein end</w>
sche dule</w>
schaff t</w>
roff ene</w>
riesi gen</w>
rie fen</w>
respon d</w>
resi stance</w>
repe ated</w>
regul ation</w>
reduc ing</w>
recogni tion</w>
recei ves</w>
read s</w>
reach es</w>
re turning</w>
re fu
re dom</w>
rat or</w>
r assi
publi sh</w>
pu ts</w>
pri or</w>
predi cted</w>
pre vention</w>
pr int</w>
plan en</w>
pi peline</w>
pet rol</w>
peri o
perfe kt</w>
pedestri an</w>
pe ak</w>
p ause</w>
ori enti
ori en</w>
on e
ol ds</w>
ob st
ob served</w>
o po
no- one</w>
ne vertheless</w>
nach hal
n it
n els</w>
mo vie</w>
mo ves</w>
mis si
metho ds</w>
men ten</w>
mel dete</w>
mean while</w>
me tern</w>
mat ure</w>
mark t
mar riage</w>
man che</w>
m men</w>
m igrant</w>
m ere</w>
m elt</w>
m au
lä dt</w>
lun ch</w>
ll a</w>
lig keit</w>
lie genden</w>
li fe
legis lat
land s
land ing</w>
ken nen
k at
jud ged</w>
jah re
it äts
ist ischer</w>
intro du
inst al
inf lam
inf ection</w>
ine z</w>
in aug
ili tät</w>
ic y
i sch
hö he</w>
häu fig
hil fe</w>
hei ßen</w>
gew and
gel ingt</w>
geh enden</w>
geb enen</w>
ge p
g ym</w>
führ ende</w>
fun ded</w>
fun ctions</w>
for mu
fo rest</w>
fin ds</w>
fi re
fe ared</w>
f ungen</w>
f ein
f a</w>
exten sion</w>
exp anded</w>
exist iert</w>
eu ch</w>
eth eless</w>
erheb liche</w>
er schien</w>
epati tis</w>
entsprech enden</w>
entscheiden d</w>
ent zün
en dete</w>
en burg</w>
en am
en ade</w>
emplo yers</w>
emp ty</w>
emerg ed</w>
el ev
eingesch rän
ein verstanden</w>
ein nahmen</w>
eb t</w>
e sischen</w>
durchschnit tliche</w>
du strie</w>
du bbed</w>
dsch ir
drin king</w>
doub ts</w>
disp utes</w>
disc lo
direc tors</w>
diagno sis</w>
di cht</w>
deta iled</w>
deta il</w>
desig n
desi re</w>
den jenigen</w>
den ing</w>
den d</w>
dela ys</w>
def ending</w>
def ender</w>
d ün
d less</w>
cy cli
custo dy</w>
contribu tion</w>
con text</w>
con servative</w>
ch ri
certi fic
campaig ns</w>
c up
c athedral</w>
busin ess
bus es</w>
bl ind</w>
bit ter</w>
beschle un
berei t
bekan nt
bean tra
beam te</w>
be zir
be kämpfen</w>
be fin
bau ten</w>
b ö
b um
b elt</w>
b ad
az ar</w>
ay ed</w>
auth or
australi schen</w>
aufge fordert</w>
ass elbe</w>
ar agu
ap e</w>
an stren
an statt</w>
al- Q
al liance</w>
al isation</w>
al ar
akzep tabel</w>
air lines</w>
agre ements</w>
adop ted</w>
ad ju
ac kt</w>
a than</w>
Zinser höhung</w>
Ziel e</w>
Zi vi
Zenti meter</w>
Y esterday</w>
Wider stand</w>
Wet ter
Wer be
Web seite</w>
W eg
Vic tor</w>
Vi si
Ver kauf
Un ser</w>
Un der
U pper</w>
Twit ter-
Tur ks</w>
Trän en</w>
Treas ure</w>
Tra dition</w>
Top -
Tol er
To wer</w>
Temper aturen</w>
Tel es
Tab ellen
Söll ner</w>
Straft aten</w>
St ation</w>
Sk y</w>
Sh ang
Sen atoren</w>
Se eh
Schön heit</w>
Schwi mm
Schwei z</w>
Sch mu
Sch le
S mo
S car
Risi ken</w>
Republikan ern</w>
Rei senden</w>
RT L</w>
R ig
R PG</w>
Präsi dentin</w>
Pro p
Po sten</w>
Pla yer</w>
Pla k
Phoeni x</w>
Pe ek</w>
P fer
O N
N ine</w>
Mon tag
Mitglie ds
Mei ster</w>
Me d
Mart inez</w>
Manch mal</w>
Magaz in</w>
Ma y
M en</w>
London er</w>
Lo ve</w>
Lei terin</w>
La ke</w>
L ange
L ager</w>
L E
Kur z</w>
Krä fte</w>
Kon to</w>
Kon tin
Kon ferenz</w>
Kenn y</w>
Ken ia</w>
Ke vern</w>
K lar
Jon athan</w>
Indepen dent</w>
I .</w>
Hyp o</w>
Hous ing</w>
Hist ori
Herz inf
H unde</w>
H oh
H ear
H aving</w>
Gre ene</w>
Gel ände</w>
Gefän gnis
Geb ühren</w>
Ge gend</w>
Gar anti
G an
G ali
Freuden stadt</w>
Flug gesellschaften</w>
Fin ance</w>
Fern ando</w>
Fen ster</w>
Fahr t</w>
FB -
F euer</w>
F emin
Explo sion</w>
Ev angeli
Ern ährung</w>
Erei gnisse</w>
Er holung</w>
Ent schä
Einwander ungs
Ear lier</w>
E S</w>
E -S
Durch schnit
Dokum ent
Disk rimin
Develop ment</w>
Del o
De pression</w>
Dar stellung</w>
D mit
D NA</w>
Corby ns</w>
Cl ass</w>
Char lie</w>
Ch ávez</w>
C ul
C ob
C T
Bulgari en</w>
Buda pest</w>
Bri ghton</w>
Bom bar
Bezir k</w>
Bet ween</w>
Besitz er</w>
Be weg
Be geg
B oot</w>
B lei
B achel
Aut oren</w>
Aut o
At tor
Ar e</w>
An wohner</w>
Amne sty</w>
Al p
Adel aide</w>
Abgeordne ten
30 .000</w>
2. 5</w>
198 0</w>
18 .</w>
10 ,
1, 4</w>
1 1.</w>
1 1.
überprü fen</w>
über wäl
über nimmt</w>
ör tliche</w>
ör t</w>
ö der
Über re
zäh lung</w>
zusammen zu
zeu gung</w>
zah ler</w>
z iger</w>
z ess</w>
y ota</w>
wür fen</w>
wor ben</w>
woh nungen</w>
wer ken</w>
we ak</w>
war tet</w>
w is</w>
w ellen</w>
w al</w>
vor geschlagen</w>
vol ume</w>
vi k</w>
verursa chen</w>
vern ünf
verletz te</w>
verbin den</w>
ver t</w>
ver sammelten</w>
ven ues</w>
v g
vg .
vg. hu</w>
v able</w>
up date</w>
unmittel bar</w>
un acceptable</w>
umb o</w>
um fasst</w>
twel ve</w>
tro uble</w>
tra iler</w>
ten en</w>
tempor ary</w>
te ars</w>
te ar</w>
t um
subsequ ent</w>
su bur
stürz te</w>
stron gest</w>
stri kes</w>
streng ungen</w>
stra ined</w>
stei genden</w>
star ben</w>
sta ff
st ün
st ap
ssi gen</w>
spra ch
speci es</w>
spec ulation</w>
sol utions</w>
sol ches</w>
sm ile</w>
si x-
si v
sharp ly</w>
sha dow</w>
sh ei
sh aus
sh arks</w>
settle ment</w>
serv ations</w>
ser y</w>
sent enced</w>
sen s</w>
sem ble</w>
sei ten</w>
schul d</w>
sch wachen</w>
sch mutz
sc ar
s äch
s ä
s mart</w>
rü ckt</w>
rup t
ro bot</w>
rin dt</w>
ri ses</w>
resul ted</w>
restruc turing</w>
resc u
represent ation</w>
renov ation</w>
rei chs</w>
refu ge</w>
refle ct</w>
recogni zed</w>
re serve</w>
re lief</w>
ra k
pun ish
public ation</w>
psy chiatri
prev ented</w>
press ing</w>
pre cise</w>
pl ed</w>
per forming</w>
particip ation</w>
p ran
p ig</w>
p es
p ak
p ack</w>
ous ness</w>
os i</w>
operi ert</w>
onn a</w>
on de</w>
om ing</w>
of er</w>
ob tain</w>
norm alen</w>
no v</w>
neu ro
ne ck</w>
month ly</w>
moder nen</w>
moder ate</w>
mod ell</w>
mis sions</w>
min us</w>
mi gen</w>
meth od</w>
mer ely</w>
men tion</w>
me ets</w>
mani pul
m eines</w>
m bach</w>
m as
lä tzen</w>
lo ved</w>
lin k</w>
limin ary</w>
lic it
lic ence</w>
li ga-
li ft</w>
leh nung</w>
leg ally</w>
la -
l ern
l as</w>
kon kur
kol legen</w>
kin dergarten</w>
k tiv
k let
k ia</w>
jor quez</w>
it ted</w>
it o</w>
ist er</w>
is ode</w>
inter im</w>
ing re
infektions mittel</w>
in no
impro vement</w>
imple mentation</w>
illu str
ill on</w>
ili t
ili d
ilid h</w>
il ers</w>
iel ds</w>
identifi zieren</w>
i al</w>
hör t</w>
hy po
hr t</w>
ho b</w>
hin ten</w>
her unter
hei mer</w>
har m</w>
hand els
hal be</w>
h vg.hu</w>
h .</w>
gren z
go sla
gh es</w>
get au
gesell schaft
geschaff en</w>
ger äte</w>
ger ät</w>
geplan te</w>
gefüh l</w>
gef örder
ge klärt</w>
g otten</w>
g all
flu cht</w>
fizi erte</w>
fiz it</w>
finanzi ellen</w>
fer -
fang s</w>
fair ly</w>
fac ility</w>
f ts
est en</w>
es cal
es a</w>
erst es</w>
eri en
erfül lt</w>
er fasst</w>
er ers</w>
er al</w>
ep ide
entsprech ende</w>
ent schlossen</w>
en erg
en able</w>
empf ohlen</w>
ein gehen</w>
eh n</w>
econom ist</w>
du bi
drü cke</w>
drin gend</w>
docum entary</w>
diplom atic</w>
di son</w>
deut liche</w>
del ayed</w>
dam aligen</w>
crit eria</w>
convers ations</w>
contri buted</w>
consult ant</w>
consider ably</w>
consider able</w>
consci ous</w>
con tained</w>
con cer
comb ined</w>
com edy</w>
col our</w>
co inci
co al</w>
clo thing</w>
ch ur
ch el
bru tal</w>
broadcast er</w>
bro wn</w>
bra him
block iert</w>
bin es</w>
bet rieben</w>
beschäf tigen</w>
beschä digt</w>
beschrän kt</w>
besch loss</w>
ber gen</w>
bel ong</w>
bekräf tigte</w>
be vorzu
be merk
be handeln</w>
be frei
bal lot</w>
b ish</w>
b -
ausge gangen</w>
auf tau
auf gestellt</w>
at ar</w>
assi c</w>
asse mbly</w>
ass ung</w>
asp ects</w>
ari sic</w>
argumenti erte</w>
argum ents</w>
anz mann</w>
ans ä
an fangen</w>
an del</w>
ambi tious</w>
alu f</w>
al z</w>
ak is</w>
ag on
ag ent</w>
adv anced</w>
acqui red</w>
accommod ate</w>
acci dents</w>
abili ties</w>
ab kommen</w>
ab gestimmt</w>
a z</w>
Zi vil
Z y
Z er
Wolf sburg</w>
Wh ere</w>
Weltre k
Weihnach ten</w>
We b</w>
Wahrschein lichkeit</w>
Vor würfe</w>
Vor wahlen</w>
Vor feld</w>
Vo gue</w>
Vi er</w>
Verbrau cher
V ar
Un til</w>
Un g
U DF</w>
Tun nel</w>
Tru e</w>
Tran sa
To yota</w>
T wins</w>
T al</w>
T V
Sto ck
Sti ftung</w>
Ste en</w>
Stand ort</w>
Stand or
Stam m
St ri
St ory</w>
Spiel ern</w>
Sp uren</w>
Sp ice</w>
Sp ace</w>
Slo wen
Si x
Sha wn</w>
Sh or
Sh eri
Ser gio</w>
Schram mel</w>
Schla f</w>
Sch uss</w>
Sch el
Sch ach
Sal v
Sa i
SA P</w>
S ob
S at
Ro th
Rei hen</w>
Reg im
Refuge es</w>
Re p
Rau b
Rap id</w>
R- V</w>
R em
R al
Qu in
Pu er
Pri or
Port land</w>
Poli tical</w>
Pol and</w>
Plan ung</w>
Pier re</w>
Pel osi</w>
P in
Obam a-
No kia</w>
Nic aragu
N ep
N eb
N an
Mär kten</w>
Mushar raf</w>
Miss brauch</w>
Mesotheli om
Me der</w>
Mat ch</w>
Mar cus</w>
Mann schafts
Man hat
Mag aluf</w>
Ma ß</w>
Ma dison</w>
M S
Lu tis</w>
Lich t
Les oth
Le wis</w>
Lah m</w>
La wn</w>
LA X-
L äch
L anzmann</w>
Kämp fer</w>
Krie ges</w>
Kommunik ation</w>
Kend all</w>
Kan ye</w>
Kaliforni en</w>
K as
Jung s</w>
Jo an</w>
Jahrhunder ts</w>
J am
J acqu
Iran ian</w>
Interne t-
Inter views</w>
Institu ts</w>
Il lin
I brahim
Höhep unkt</w>
Hu ghes</w>
Hoff mann</w>
Ho gg</w>
Hist ory</w>
Hin des</w>
Hel fer</w>
Haush alt</w>
Hasla ch</w>
Hans ford</w>
Hall yday</w>
Hag man</w>
H ob
H eu
H ern
H R-V</w>
Gö tze</w>
Gr unde</w>
Glau ben</w>
Gewin ne</w>
Gesund heit
Ger ät</w>
Gel der</w>
Ge fahren</w>
Gau l
Gar land</w>
G lint</w>
G anz</w>
G L</w>
Frei lassung</w>
Frank ie</w>
Fortsch ritte</w>
Fortsch ritt</w>
Flug gesellschaft</w>
Flori an</w>
Feder ation</w>
F ood
Ex ist
Euro wings</w>
Es me</w>
Erinn erungen</w>
Er leb
Elli s</w>
E mo
E ilidh</w>
E R</w>
Du ell</w>
Doc tors</w>
Dob rindt</w>
Dinosau ri
De fence</w>
Da ily</w>
D ach</w>
Curr ently</w>
Croati an</w>
Cop enhagen</w>
Com mission
Co w
Co ck
Cho col
Ch ic
Ch all
C lim
Bri g
Brei vik</w>
Bra vo</w>
Bo jorquez</w>
Bitco in</w>
Bil anz</w>
Betrieb s
Be hr
Bayern -
Basket ball</w>
B enn</w>
B arisic</w>
B am</w>
B ack
Auf stieg</w>
Auf nahmen</w>
Auf klärung</w>
Asylbewer ber</w>
As bestos</w>
Ar ro
Ar ch
Antwor ten</w>
Anni ka</w>
An wendung</w>
An frage</w>
Ale x</w>
Ab stand</w>
Ab endessen</w>
A gu
A dre
A M
7 5
4 x
4 .000</w>
29 -year-old</w>
23 .</w>
20 22</w>
20 .
198 7</w>
19 46</w>
0 5</w>
-Jähri ger</w>
- H
&apos; I</w>
ül lt</w>
übri gen</w>
ü ll
ö kon
í v
Über prüfung</w>
zur ichten</w>
zo sen</w>
zeich neten</w>
zahl ten</w>
wün schen</w>
wor ry</w>
wo unded</w>
wirt schafts
win ds</w>
wiederhol en</w>
wei ß
wei sung</w>
wei s
w ra
vol ati
vi ous</w>
versu s</w>
versch aff
vergan gene</w>
verbess ert</w>
verb ands</w>
veranstal tung</w>
ver är
ver stor
ver sorgung</w>
v eg
v ant
us en</w>
ur ation</w>
unterneh mens</w>
uni versi
ung lück
u pper</w>
u al
tz ei
tri eb
tr e</w>
tr ary</w>
ti llo</w>
th ans
thans a</w>
th al</w>
tern al</w>
teil ungen</w>
t é</w>
surro unded</w>
suggest ing</w>
subsidi ary</w>
sto red</w>
sta yed</w>
spä teren</w>
spec tac
sp here</w>
sou l</w>
soli d</w>
sol ve</w>
so genannte</w>
slo gan</w>
sil ent</w>
sich ert</w>
sho ck</w>
serv ants</w>
sel ected</w>
se as</w>
schätz t</w>
schi cht</w>
sc ru
sc ep
sam es</w>
rupt cy</w>
ru mp
rin k
riesi ge</w>
rie be</w>
richti gen</w>
reta ilers</w>
requ iring</w>
rel ation</w>
regre t</w>
region alen</w>
reco ver</w>
recht liche</w>
re serves</w>
re lay</w>
re au</w>
ra ti
qu et</w>
proper ly</w>
prohib ited</w>
pre gn
potenti ally</w>
post al</w>
poli s</w>
person ally</w>
perpetrat or</w>
pas ste</w>
par ent</w>
par allel</w>
pain ted</w>
p in
p f</w>
or ge</w>
on ing</w>
on ia</w>
olymp ischen</w>
ol dest</w>
oh nt</w>
off s</w>
off -
obst ac
o vi
o red</w>
o k</w>
o ia</w>
o .</w>
nur sery</w>
neh me</w>
nat ür
n ord
moun tains</w>
mit geteilt</w>
mist akes</w>
milli onaire</w>
mei sters</w>
medi um</w>
man de
mag ne
m ten</w>
lo ck
liter ature</w>
lei der</w>
lei chter</w>
leh nen</w>
langfri stige</w>
lang wei
kur ze</w>
kontrol lieren</w>
komp let
klassi schen</w>
klag te</w>
k einem</w>
jün gste</w>
jähr liche</w>
justi fied</w>
inter nen</w>
informi eren</w>
ine es</w>
incredi ble</w>
i res</w>
i o</w>
hr en
hoch ran
hin weg</w>
hier bei</w>
hei mische</w>
hand ling</w>
hal tungs
h ie
h ate</w>
h allu
ghten ing</w>
gh tly</w>
gescho ss</w>
gesch ah</w>
gen ö
gel der</w>
gegen wär
gather ing</w>
ga ins</w>
g y
g by</w>
fün ften</w>
fundam ent
fun kan
fri sch</w>
fort gesetzt</w>
for schung</w>
fis k</w>
fi x
fer nen</w>
fel d
fehl ende</w>
favour ite</w>
fas cin
f ought</w>
f ie</w>
f are</w>
f alt</w>
exclu sively</w>
exclu sive</w>
excep tional</w>
ex pression</w>
erwar teten</w>
erlau ben</w>
erlau b
erhöh te</w>
erfol gt</w>
enti al</w>
encour age</w>
emp fangen</w>
em ail</w>
ell -
einz igar
einf ache</w>
ein ig</w>
ei ved</w>
eff ectively</w>
econom ies</w>
ear th</w>
du s</w>
dr ingen</w>
dokum enti
dire kte</w>
dir ty</w>
difficul ties</w>
dien stes</w>
di versity</w>
des wegen</w>
der schaft</w>
der er</w>
dep end</w>
demo li
deep ly</w>
de cent</w>
de als</w>
d led</w>
cycli sts</w>
cre ative</w>
coun ty</w>
contempor ary</w>
con stant</w>
compla int</w>
com posed</w>
com modi
com bination</w>
colle ct</w>
ck sil
centimet res</w>
can e</w>
c ation</w>
bur st</w>
bro ader</w>
break fast</w>
bran ch</w>
boo st</w>
bom bs</w>
bo den</w>
blioth ek</w>
bezieh ungsweise</w>
bezeich nen</w>
beteili gen</w>
beson deren</w>
ber at
ber -
ben ach
bele gt</w>
bei zu
befür chten</w>
beein druck
be t</w>
be gangen</w>
be feh
be ding
be an</w>
ban kers</w>
b ör
b yp
b o</w>
b i</w>
b al</w>
b ail</w>
b ail
avoi ded</w>
au to
assess ment</w>
ari b
ar ten</w>
approach ing</w>
app lies</w>
anst ieg</w>
ang s
air o</w>
aff ordable</w>
ac es</w>
ab teilung</w>
a eda</w>
Zel aya</w>
Zap ater
Z o
Z elle</w>
Wil helm</w>
War nung</w>
W ü
W right</w>
W ho
W ell</w>
Ver mö
Ver lauf</w>
Ver band</w>
Vene zuela</w>
V om</w>
Um bau</w>
US- amerikanischen</w>
Tschech ischen</w>
Tsch e
Tra g
Tr end</w>
To il
Th ir
Ter min</w>
Teil neh
T oll
Stür mer</w>
Stur z</w>
Stu dien
Sti ch
Stat ue</w>
St ei
Selbstmor d</w>
Se chs</w>
Schluss fol
Schie ßer
Sch ülern</w>
Sch reiben</w>
Sch nee
S äu
S wit
S tern</w>
Rot -
Ro hr
Rich terin</w>
Rez ession</w>
Rett ungsp
Rechts anwalt</w>
Reb ellen</w>
R ans
Projek ts</w>
Prof ession
Pil ger
Pet ra</w>
Pap st</w>
Pap ier</w>
P lauen</w>
Ob serv
O ut</w>
No ti
Niel sen</w>
Nasda q</w>
N iss
N PD</w>
Musli ms</w>
Mich o
Meilen stein</w>
Medi z
Main z</w>
Ma xim
MR SA</w>
M ut</w>
M ieten</w>
Luf thansa</w>
Lo ck
Li zen
Li quidi
Lei chen</w>
Lange weile</w>
Land tag</w>
La zar
L B</w>
Kur dish</w>
Konz ern
Kl einen</w>
Kir ch
Kab in
K ä
Jör g</w>
Joh annes</w>
Jen ner</w>
J unior</w>
Inde ed</w>
In n
I C
Höh en
Hin sicht</w>
Hallu zin
Haf t</w>
H ör
H äusern</w>
H ome</w>
H essen</w>
H U
H S
Gipf el
Gi ff
Gesch m
Gen e
Gei ger</w>
Fäh igkeiten</w>
Fron tier</w>
Fre m
Fran zosen</w>
Food watch</w>
Flugzeu ge</w>
F lo
Exper ts</w>
Every thing</w>
En ri
E-Ma il</w>
E cke</w>
E ach</w>
Dro h
Diplom aten</w>
De sig
Dat a</w>
D unk
D ick</w>
Cub a</w>
Chic ago</w>
Charak ter</w>
Champions- League-
Ch ase</w>
C over</w>
By ron</w>
Bu ches</w>
Bis her</w>
Bet racht</w>
Best e</w>
Beson ders</w>
Ber lin-
Begeist erung</w>
Befür chtungen</w>
Be fragten</w>
Be drohung</w>
B an</w>
Aufsichts rat</w>
Asy l</w>
Arbeitsp latz</w>
Ar ten</w>
Anti- Doping-
An tar
An strengungen</w>
An schuldigungen</w>
All tag</w>
Al ko
Aff äre</w>
Ac ademy</w>
8 8</w>
8 .</w>
6 3</w>
3 000</w>
1. 4</w>
1- 0</w>
0- er</w>
- Mar
är kt</w>
än e</w>
ä tigung</w>
zu gleich</w>
zer o</w>
zer land</w>
zah lung</w>
z on
ym ne</w>
wor t</w>
woh nt</w>
with dra
wi shes</w>
what ever</w>
weit aus</w>
wei gh
weak ness</w>
we al
war ran
wan del</w>
vo ic
vers y</w>
verkün dete</w>
verkün det</w>
ver mittelt</w>
ver i
veg an</w>
vari ety</w>
urs i</w>
urs es</w>
ur g
ung st
ung ssystem</w>
un likely</w>
un certainty</w>
um in
um -
ul tr
u ch</w>
u a</w>
türk ische</w>
tö ten</w>
tw agen</w>
tru ck</w>
tre ff
tre as
transpor tation</w>
tran sition</w>
tra cking</w>
tox ic</w>
tl ing</w>
there by</w>
the ft</w>
testim ony</w>
tan cy</w>
tal ked</w>
tal ent</w>
t ver
t onn
t as</w>
t ank</w>
suspi ci
sur ge
suff erers</w>
su s</w>
su gar</w>
stät ten</w>
studi o</w>
stu ff</w>
stu died</w>
strugg led</w>
stre ben</w>
stran ge</w>
stra ßen</w>
sta at</w>
st ina</w>
ssi ge</w>
squ ee
spon so
sponso red</w>
speci alists</w>
spe aker</w>
spann t</w>
sp iegel</w>
sl o</w>
sk illed</w>
situ ations</w>
sig ning</w>
si an</w>
shor t
sho es</w>
sen ding</w>
se ktor</w>
se k</w>
schri ft
schla fen</w>
sch är
samm eln</w>
sam t</w>
sal aries</w>
sa ving</w>
s äm
s now
s in</w>
s an</w>
ro unds</w>
ro lle</w>
rimin al</w>
ri de</w>
reu teri</w>
requi res</w>
rep lied</w>
renov ated</w>
regar dless</w>
rec ession</w>
rec all</w>
re land</w>
re kt</w>
re covered</w>
re aders</w>
rap id</w>
ra cial</w>
qu er</w>
prü ft</w>
präsen tierte</w>
promot ed</w>
promis es</w>
profession als</w>
process es</w>
pre liminary</w>
pre c
poli tically</w>
poli tan
po t</w>
ple ase</w>
phot ograph
part nership</w>
pa yers</w>
p ace</w>
ott es
or a</w>
op ti
op p</w>
ong st</w>
on ie</w>
om berg</w>
oblig ation</w>
o re
ni ck
neut r
neighbour ing</w>
negoti ate</w>
ne ys</w>
ne un
ne -
n d
mus cle</w>
mot to</w>
mo vic</w>
mo vements</w>
militäri schen</w>
mi li
mi ce</w>
men d
medi cine</w>
mat ters</w>
massi ven</w>
m ah
lö ste</w>
ly sé
lo sen
lo gy</w>
lie ber</w>
li quidi
li ers</w>
li ative</w>
lei chte</w>
lei b
legi timate</w>
laun ching</w>
la id</w>
l len</w>
l friend</w>
l acking</w>
kosten los</w>
kompli ziert</w>
kl ingt</w>
kin akis</w>
kilome ters</w>
kil ometer</w>
kehr te</w>
k us
k roati
k amer
jähr lichen</w>
it en</w>
it age</w>
inten sive</w>
ini erte</w>
inf ected</w>
in spek
immer hin</w>
im ler</w>
ill o</w>
ill en
ig i</w>
i z</w>
i k</w>
hot els</w>
ho sen</w>
ho p</w>
ho ckey</w>
hi dden</w>
har ten</w>
happ iness</w>
h ar</w>
gui delines</w>
groß em</w>
gli el
gliel mi</w>
gest altet</w>
geschlag enen</w>
gere gt</w>
ger issen</w>
gel te</w>
ge sorgt</w>
g ut
g lad</w>
g ins</w>
g ates</w>
förder t</w>
fur t</w>
fun ny</w>
floo d</w>
fizi erten</w>
fis her</w>
fis cal</w>
feder ation</w>
fal schen</w>
fac ilit
fa il</w>
f rat
f ile</w>
f ak
exclu ded</w>
exc ellent</w>
ex tend</w>
ex ports</w>
ethni c</w>
est e</w>
escap e</w>
erzäh len</w>
erlei chtert</w>
erklär ten</w>
er schossen</w>
ent on</w>
engine ers</w>
eng ines</w>
encour aged</w>
en nen</w>
en gagement</w>
eme tery</w>
el lem</w>
el ing</w>
ein ger
ein geleitet</w>
ein geladen</w>
ei ling</w>
eh men</w>
edon ien</w>
eb ody</w>
e- sport</w>
e at</w>
dy nam
durch führen</w>
dr unk</w>
disappe ar</w>
disa d
dis order</w>
di alogue</w>
deli very</w>
decre ase</w>
de alt</w>
dat ex</w>
das hi
dank bar</w>
d son</w>
d lern</w>
d le-
d eine</w>
cul ous</w>
conver ted</w>
contro versy</w>
contribu te</w>
consi sts</w>
con gressional</w>
con dem
competi tions</w>
collap sed</w>
classi cal</w>
chil d
che aper</w>
chan nel</w>
ch irur
ch el</w>
ch ann
c ats</w>
c ann
c able</w>
bun des
bu yers</w>
broad cast</w>
bro thers</w>
bro chen</w>
bot tom</w>
boo m</w>
bo xes</w>
bet reibt</w>
best rei
best im
beru f
ben e
belieb t</w>
bein hal
beeinträ chtigt</w>
be weisen</w>
be sei
be ab
ban e</w>
bab ies</w>
b itte</w>
b aut</w>
b ask
az ität</w>
avan i</w>
ausgest rah
aup tung</w>
au ten</w>
attra cted</w>
at ra</w>
asp halt</w>
as sie</w>
ar sen
ani um</w>
an ie</w>
am ongst</w>
ali se</w>
aktu ell</w>
aig er
ag on</w>
ag o
ag a</w>
ad di
absur d</w>
aband oned</w>
a wards</w>
Zwe cke</w>
Zigar etten</w>
Zei tschrift</w>
Ze al
Zapater o</w>
Zah lung</w>
Z one</w>
Z ahn
Z ahl
Wis sing</w>
Wirt schaft
Wi thin</w>
Wh ich</w>
Wer t
Wat ch</w>
W ann</w>
Vo daf
Versich erungs
Ver sorgung</w>
Ver bre
Ve ter
Ve gan
V ul
Ur sprün
Ur bach</w>
Un fortunately</w>
Ul tra
Ul rich</w>
Tür en</w>
Tur bul
Tra mpo
Th y
Temp o</w>
Teen ager</w>
T ou
Swit zerland</w>
Straf verfol
Ster ling</w>
Stell ung</w>
Staat schef</w>
St ahl
Spe kul
Spar k
Sol om
So wohl</w>
Seni oren</w>
Schram berg</w>
Schnei der</w>
Schn ell
Schi ck
Schaff ung</w>
Sch ne
Sam stag
Salv ador</w>
Sa ar
S zen
S ant
Rö szke</w>
Ru n</w>
Ru dy</w>
Rom a</w>
Ro sa</w>
Richt linien</w>
Regi stri
Rak ete</w>
Raf ael</w>
Ra is
R ie
Pil oten</w>
Pi ff
Part ner
P lätze</w>
P ay
P ad
Or ch
O slo</w>
Notwen digkeit</w>
Nor m
Nich ts</w>
Neu er</w>
Ne ther
N eben
N ap
Mur ray</w>
Muni cip
Mot to</w>
Mor gen
Mor di
Mor a</w>
Moham med</w>
Mobil funkan
Mo del</w>
Min destens</w>
Mich el</w>
Mi o.</w>
Mein ungen</w>
Medi a</w>
Mar gar
Mal com</w>
Maj or</w>
Ma x
MP s</w>
M é
M ursi</w>
Lö sungen</w>
Läch eln</w>
Ly th</w>
Lin z</w>
Liber ty</w>
Lesoth o</w>
Le verk
Le one</w>
Lazar us</w>
Lau rie</w>
LAX- C</w>
L änder
L enn
Kürz ungen</w>
Kü ste</w>
Konta kte</w>
Konkurren ten</w>
Kok kinakis</w>
Kl assi
Kl assen
Kl agen</w>
King fisher</w>
Kil o</w>
Kei th</w>
Karl -
Kar el</w>
Kar dashi
Kap ital</w>
Kamp ag
K it
K ein</w>
K atie</w>
Journal ist</w>
Jes us</w>
Jef f</w>
J umbo</w>
J orge</w>
Ins assen</w>
Infe ktionen</w>
In stag
In ner
Ibrahim ovic</w>
IG A-
I reland</w>
Hor st
Ho t</w>
Ho gan</w>
Hil tru
Hel en</w>
Hear ts</w>
He aly</w>
Har rison</w>
Har abi
HU F</w>
HM X-
H ou
Gu glielmi</w>
Gouverne urs</w>
Gi uli
Gewi cht</w>
Ger ol
Gei singen</w>
Gebäu des</w>
Gaul tier</w>
Gast geber</w>
G ul
G ott</w>
G ord
G len
G ary</w>
Fäh igkeit</w>
Fut ure</w>
Fol ayan</w>
Fin ally</w>
Feli pe</w>
F ür
F isch</w>
F esti
F FP</w>
Ex tra</w>
Euro -
Ergeb nissen</w>
Ent täu
Enri que</w>
Em den</w>
Elli son</w>
Einschätz ung</w>
Ein wohnern</w>
Econom y</w>
Econom ics</w>
E ier
E CB</w>
Dre am
Dor f</w>
Demon strationen</w>
Da imler</w>
D ä
D ong
D an</w>
D ad
D PP</w>
Conne ctic
Con ference</w>
Commission er</w>
Cir cus</w>
Christ ine</w>
Chocol at</w>
Ch irur
Ce cilia</w>
C riminal</w>
C ous
C lar
C ent</w>
C anning</w>
C MT</w>
Bü ro
Bur k
Bundeskanz lerin</w>
Braunschwei g</w>
Br no</w>
Bou lev
Bombar di
Bo ston</w>
Blo omberg</w>
Beschäf tigung</w>
Beh auptung</w>
Befrei ung</w>
Be darf</w>
Bau ern
Barri ck</w>
B ordin
B olog
Auf hebung</w>
Au datex</w>
Attor ney</w>
Architek ten</w>
Arbeits markt</w>
Ange li
Analy tiker</w>
An kla
An forder
Al le
Al i</w>
Al co
Al as
Al an</w>
A sen
A GL</w>
3 4
2 nd</w>
18 .
14 .
12 -
1 10</w>
. C.</w>
β en</w>
č ek</w>
über wiegend</w>
öl ler</w>
öh ner</w>
án dez</w>
zw ingen</w>
zurückge kehrt</w>
zu versi
zu stand</w>
z elt</w>
z .</w>
yel low</w>
y ce</w>
writ ers</w>
will kommen</w>
west lichen</w>
wei ßer</w>
w yer</w>
vor genommen</w>
vor an
vie wing</w>
vide os</w>
vi sa</w>
verwen deten</w>
verwand eln</w>
versch är
versch le
verring ert</w>
verlu st</w>
verletz ungen</w>
verantwor tungs
ver teilen</w>
ver st
ver m
ver lässt</w>
ver legt</w>
ver langen</w>
ver größ
ut ri
ush ed</w>
ur anium</w>
up set</w>
unterschie dliche</w>
ung arischen</w>
un necessary</w>
un changed</w>
un anim
um fang
ul ty</w>
tro ver
trig gered</w>
tri eb</w>
tri als</w>
tre s</w>
tradition ally</w>
tra dition</w>
tr oni
tonn es</w>
tex t
ter ten</w>
ter ran
ter ien</w>
t- up</w>
t sp
t reibt</w>
t reib
t mann</w>
t agen</w>
swe et</w>
subsequ ently</w>
su its</w>
stärk sten</w>
stur z</w>
stret ch</w>
streng then</w>
stor age</w>
spon sor
spezi alisiert</w>
sp lit
sp ei
sop hist
so ver
so unds</w>
shou ldn</w>
shor tage</w>
sho cked</w>
shar eh
sexu ell</w>
sex tre
sen ators</w>
sel assie</w>
secu tive</w>
secon d-
schwieri gen</w>
schwer er</w>
schrei ten</w>
schmer z
schlu gen</w>
sch rieben</w>
sch ein</w>
sch efs</w>
scen ario</w>
sav ings</w>
rub bish</w>
ru hen</w>
ru fe</w>
rout ine</w>
rot en</w>
ro ots</w>
ri sk
ri or</w>
ri f
ri ce</w>
respon dents</w>
reali se</w>
re sign</w>
re pair</w>
re pa
re fur
re actions</w>
ra in
ra de</w>
r ors</w>
pur poses</w>
pu b</w>
produ ces</w>
priv acy</w>
pos s
politan o</w>
po se
plat ten</w>
ph y</w>
ow ns</w>
ov a</w>
out lets</w>
organiz ers</w>
organis ations</w>
or atory</w>
on gs</w>
ol f</w>
ob ject</w>
notwen digen</w>
n in
n app
musli mischen</w>
motivi ert</w>
moder ni
mo s</w>
mit teilung</w>
mi x</w>
mi g</w>
mexikan ischen</w>
mexikan ische</w>
mem or
mechan ism</w>
meas uring</w>
me er</w>
mati c</w>
m alige</w>
lo wer
lo ses</w>
lo an</w>
ligi sten</w>
lek tu
leh nt</w>
leb ende</w>
lear ning</w>
le ge
le aked</w>
la y
la sted</w>
l oud</w>
l ace</w>
kämp fe</w>
kur zen</w>
konkur ri
kommen s</w>
kno wing</w>
kamp f
k und
k rei
k le
k atholi
ist in</w>
ish es</w>
investig ate</w>
introdu ce</w>
intel ligent</w>
inspec tion</w>
insi ght</w>
in su
in ne</w>
imple ment</w>
im pose</w>
ik a</w>
i ds</w>
house holds</w>
hol es</w>
hol e</w>
histori sche</w>
hallu cin
h un
gu it
grü ne</w>
gradu ates</w>
gra d</w>
glob ale</w>
gi c</w>
gh ters</w>
gewalt tä
gest o
gest e
geschäf ts
gerei st</w>
ger et
gen ossen</w>
gemein nütz
gehol fen</w>
gehand elt</w>
g ie
fän gt</w>
frei heit</w>
fot ografi
forsch ungs
fiel der</w>
fi zierung</w>
fi ehlt</w>
fest en</w>
fast est</w>
far m</w>
fail ing</w>
fahr t
fac tion</w>
f ließen</w>
f ingers</w>
f illing</w>
f i</w>
exhi b
exam ine</w>
ex ec
every body</w>
event u
et s
et c</w>
et abli
ernsthaf t</w>
erken nt</w>
ereig nete</w>
er mor
er ender</w>
enthusi ast
en sic</w>
emp fiehlt</w>
em pl
el ter</w>
el se
einzel ne</w>
ein genommen</w>
eg g</w>
e chn
du el</w>
distri cts</w>
dis missed</w>
di ty</w>
descri bing</w>
des k</w>
der ing</w>
depen ds</w>
deliber ately</w>
defini tiv</w>
defin ed</w>
defe ated</w>
dam alige</w>
d dy</w>
cro wn</w>
cro ssed</w>
cont am
conclu sions</w>
con secutive</w>
con gre
compreh ensive</w>
competi tor</w>
clo ck</w>
cigar ettes</w>
chn er-
ch am
celeb ration</w>
cau tious</w>
care ful</w>
camp us</w>
c ab
bu ch
bri dges</w>
bo und</w>
block ieren</w>
besch lag
bemü hen</w>
belong ed</w>
befür chtet</w>
be zi
be waff
be vor
be dro
b ond</w>
b ola</w>
b icy
b b
b age</w>
b ag
b acks</w>
auf weisen</w>
audi t</w>
au x</w>
au ction</w>
att ack
ati k</w>
at ta
at ch</w>
argu ing</w>
ap s</w>
ap p</w>
answer ed</w>
angeneh m</w>
an ta
an scheinend</w>
an k
amerikan ischer</w>
am ei
al ismus</w>
ak ia</w>
aiger loch</w>
ai red</w>
ag ri
ade mi
aci fic</w>
achie vement</w>
accur ate</w>
a .</w>
Zwischen zeit</w>
Zu stimmung</w>
Zeal and</w>
Z wischen</w>
Z immer
Wirtschafts wachstum</w>
Weiß r
We ber</w>
Wash ing
War n
Wal mart</w>
W under</w>
W M-
Vor fälle</w>
Vol k
Vin cent</w>
Vi ze
Verfol gung</w>
Verein s</w>
Ver wand
Ver samm
V ali
Unter schie
Turni er</w>
Tsche chen</w>
Tra v
Tra de</w>
Tor y-
The atre</w>
Th ür
Terror isten</w>
T enn
T SV</w>
Symp ath
Sum mit</w>
Strei tigkeiten</w>
Steuer zahler</w>
Stadt verwaltung</w>
Stad ler</w>
Sport ler</w>
Spiel zeit</w>
Spann ungen</w>
Sp ir
Softwar e-
Slo ven
Sk andal</w>
Sho w
Ser vices</w>
Schwä che</w>
Schieds richter</w>
Schel fei
Sch er
S outh
S E</w>
Rhin e</w>
Rh ön
Ren di
Regier ungsp
Re yes</w>
Re ligi
Re ch
Rans om
R ing</w>
Que en</w>
Qu é
Puer to</w>
Pu ber
Prof is</w>
Produ zenten</w>
Pr ince</w>
Pom pe
Plan s</w>
Piff l</w>
Ph ysi
Persön lichkeiten</w>
Per haps</w>
Pen sion
Parlam ents</w>
Pani k</w>
Pal ästin
P sy
P end
P acific</w>
Organ iz
Or chestra</w>
Opf ers</w>
O ze
Nutz en</w>
Niedersach sen</w>
Nether lands</w>
Nach wuchs</w>
N uss
N T
N F
Mor d</w>
Mon ats</w>
Mod elle</w>
Miro slav</w>
Mil an</w>
Mi o</w>
Men sch
Medikam ente</w>
Mark et</w>
Manhat tan</w>
Ma ster</w>
Ma in</w>
M G
Lux em
Lu ci
Liter atur</w>
Lab or</w>
L äden</w>
L ek
L aut
Ku chen</w>
Krem lin</w>
Kop enhagen</w>
Kom promis
Klima wandel</w>
Klim a</w>
Kir chen</w>
Kar din
Kamer a</w>
Ka is
K und
K nei
K lo
K -
Justi z</w>
Jan ota</w>
Itali ens</w>
Islam ischen</w>
Intel ligence</w>
Imp f
I ll
Hypothek en
Hu bert</w>
Hin weis</w>
Hil fs
Harabi š</w>
Hand wer
Hab en</w>
H az
H ass
H allo
H ak
H ac
Gr öß
Gold meda
Gener ationen</w>
Gemein de
Gem äß</w>
Geburt stag</w>
Gebr selassie</w>
Garanti e</w>
Gar ten</w>
G um
G as</w>
G P</w>
Fü ße</w>
Fur cht</w>
Fre e
Fot ogra
Fol k
F und
F lan
Europ amei
Erwachsen en</w>
Engli sch</w>
En ron</w>
Emp fang</w>
Em ir
Ele mente</w>
Ecu ador</w>
E pi
Durch führung</w>
Dop ing
Dokum ent</w>
Di esen</w>
Dat um</w>
Dan ish</w>
Dam als</w>
D é
D id</w>
D es</w>
D A
D .</w>
Con sul
Col es</w>
Co de</w>
Brü der</w>
Bom ben
Blu es</w>
Bil dschir
Bet ten
Beru fs
Bekan nt
Befür wor
Be ck
Bau er</w>
BV B</w>
BB C-
B rück
Aus ma
Asi en</w>
Arbeit nehmer</w>
Ar z
Anti- Doping</w>
An satz</w>
An gel</w>
Al ters
Al ten
Al kohol
Ab schluss
A sp
9 th</w>
9 0
7 8</w>
7 8
7 50</w>
6 9
30 pm</w>
25 .</w>
2 1
2 -year-old</w>
2 ,000</w>
198 3</w>
16 .
1 40</w>
0 m</w>
š ek</w>
üt ter</w>
ünst ig
ück t</w>
ück en</w>
über winden</w>
über geben</w>
ä ger</w>
Überre ste</w>
Über nahme</w>
Über ein
Ö kon
Äthiop ien</w>
Är z
zur ei
zugän glich</w>
zent rums</w>
wus sten</w>
work place</w>
wom it</w>
wit n
win dows</w>
wiederhol te</w>
wi dri
wi ck</w>
wi ch</w>
weit gehend</w>
wei sungen</w>
war ming</w>
war eh
waff en
w öch
w unden</w>
w ski</w>
w re
w oo
verstär ken</w>
verstän d
versi ons</w>
versch winden</w>
versamm elt</w>
verein s</w>
verb ra
ver traut</w>
ver trauen</w>
ver ni
ven der</w>
valu able</w>
v ital</w>
uss land</w>
us con
ur n</w>
unver ändert</w>
unter zeichnet</w>
unter halten</w>
uni gen</w>
undre ds</w>
un like</w>
un ited</w>
un comfortable</w>
ultr as
ub b
u to</w>
tö dlichen</w>
tw in</w>
tru gen</w>
tri ps</w>
trau m
tra cks</w>
to wer</w>
ti ght</w>
ti gem</w>
thir ds</w>
tern acht</w>
temper ature</w>
teil zunehmen</w>
t ats
tats äch
sätz en</w>
suspici on</w>
survi ved</w>
supp liers</w>
super vision</w>
stär ke</w>
sti ziert</w>
stei gerung</w>
ste am</w>
statt findet</w>
stand s
spr ingen</w>
spor ting</w>
sp enden</w>
sophist ic
sing ly</w>
si der</w>
shoul ders</w>
sen z</w>
sen -
selbst verständlich</w>
sein erseits</w>
se mb
sco res</w>
schn ellen</w>
schlim mer</w>
sch ir
sch er
scen es</w>
sc ra
saniti zer</w>
s ells</w>
räum t</w>
rä t</w>
rä si
rup tions
ru st</w>
ru gu
rou ghly</w>
rot t</w>
ri ver</w>
rene wed</w>
remark s</w>
rel or</w>
rei ter
rei chte</w>
rei cher</w>
region ale</w>
regar ds</w>
rec alls</w>
reag ierte</w>
re volution
re tro
re signed</w>
re servations</w>
re hear
re ass
ra ises</w>
r öh
r y-
r unde</w>
r gi
rgi os</w>
purch asing</w>
punk ten</w>
provin cial</w>
provi sions</w>
provi der</w>
promot ing</w>
promis ing</w>
pro portion</w>
premi er</w>
pre ce
por ted</w>
poll o</w>
politi ker</w>
pl ätzen</w>
pi pe</w>
out standing</w>
out come</w>
otherap y</w>
ot ed</w>
ori us</w>
organis ers</w>
organi ze</w>
ord net</w>
oper ates</w>
op fer</w>
op ens</w>
on s-
on ieren</w>
niem anden</w>
nen nung</w>
ne ur
mä chti
mut maß
musi kali
mit zu
mid night</w>
mensch lichen</w>
men ge</w>
member ship</w>
meas ured</w>
me work</w>
mand o</w>
län dlichen</w>
logi cal</w>
lo ws</w>
lo go</w>
lo g
liquidi ty</w>
lich keits
lei ten</w>
leg s</w>
le gend
la yer</w>
l uscon
l ens</w>
kulturel len</w>
ktur en</w>
kti ven</w>
kre u
kon to</w>
kno cked</w>
kl es</w>
kl ah
klah oma</w>
k ings</w>
k id</w>
k atal
jo in
jem anden</w>
j unger</w>
j er
is mus
irgend wie</w>
ir rit
invest or</w>
interpre tation</w>
inter vention</w>
inten tion</w>
inst in
in y</w>
in sula</w>
in hal
in haf
in en
in able</w>
im prison
il st</w>
ic y</w>
iPh one</w>
i OS</w>
höch ste</w>
häufig sten</w>
human it
hol m</w>
ho stages</w>
hin ein
hi de</w>
heu tige</w>
her zustellen</w>
her z
her o</w>
her es</w>
har der</w>
halten en</w>
h p</w>
h ome
h ire</w>
h ang
grei ft</w>
gra m</w>
gir lfriend</w>
gew ährt</w>
geste ckt</w>
genü gend</w>
gener ations</w>
genehm igt</w>
gene tics</w>
gem essen</w>
gehör ten</w>
gehei m
gegensei tig</w>
gef asst</w>
ge öffnet</w>
ga ining</w>
g on
frequ ent</w>
freiwilli g</w>
fra mework</w>
fol gten</w>
fo ssi
fo lio</w>
fi schen</w>
fi sche</w>
ff iti</w>
fest gelegt</w>
fer tigen</w>
fer ences</w>
fal sche</w>
f lie
extor tion</w>
exhau sted</w>
ex pl
ex ists</w>
ex act</w>
eth ics</w>
esk ine</w>
es sive</w>
es see</w>
eröff nete</w>
erlit ten</w>
equi valent</w>
equ ally</w>
enter ing</w>
enjo yed</w>
en sion</w>
en em
enem ies</w>
emerg ing</w>
else where</w>
ell a</w>
elek tri
el mann</w>
el eph
ein stellen</w>
eigen er</w>
effek tiv</w>
eb all</w>
ear n</w>
e ß</w>
e z
e ge</w>
e able</w>
dä cht
duc t</w>
du res</w>
drän gten</w>
dra ma</w>
dor thin</w>
don ation</w>
diss ol
disp la
disap pointed</w>
disag re
dis gu
dis cover</w>
dies mal</w>
develop ments</w>
desc o</w>
deep er</w>
de teri
de ter</w>
de serves</w>
de h
dar aufhin</w>
dan ke</w>
da ch
d ons</w>
d d</w>
d ations</w>
d ating</w>
d asselbe</w>
cy clist</w>
cross -
cre ates</w>
cr yp
corpor ation</w>
conven tional</w>
contin ent</w>
confir ms</w>
concer ts</w>
con a</w>
compu ters</w>
comp et
comp act</w>
comman der</w>
colle ctive</w>
co s
co ca
coca ine</w>
close st</w>
clin ics</w>
civili ans</w>
cht liche</w>
chen bach</w>
chann els</w>
cha e
ch eng
ch enen</w>
cau tion</w>
c eiling</w>
bü cher</w>
bur ied</w>
bun al</w>
bron n</w>
brea thing</w>
bra un
bra sili
bloo dy</w>
bis h
bin sel</w>
bi sche</w>
bewer ten</w>
beteili gten</w>
bet reiben</w>
besch reiben</w>
berei tet</w>
bel ongs</w>
beinhal tet</w>
be wäl
be kamen</w>
be har
be droh
bau er</w>
bad ly</w>
b latt</w>
auth ori
australi sche</w>
aus geben</w>
aus gabe</w>
aus einander
atten ding</w>
attemp ting</w>
at titude</w>
at oes</w>
at cher</w>
astro ph
assi stant</w>
assi st</w>
assa u</w>
ass ed</w>
arti ges</w>
argumenti eren</w>
any more</w>
ani scher</w>
an xi
an ten
an dez</w>
an dem</w>
am id</w>
all as</w>
al ert</w>
akzep tiert</w>
ak et</w>
agre b</w>
ag relor</w>
ag gressive</w>
af gh
aci o</w>
Zu wander
Zu schlag</w>
Zivi listen</w>
Zeh ntaus
Z ir
Z hu</w>
Z hang</w>
Z agreb</w>
Z K</w>
Yan ke
Y ang</w>
Wet ter</w>
We eß</w>
Wald hotel</w>
Wag ner</w>
W oods</w>
W hat
W ern
W ein
Vor wurf</w>
Vor geh
Visi er</w>
Vill a</w>
Vf L</w>
Vermö gen
Veranstal tungen</w>
Ver trau
Ver ha
Ver breitung</w>
Ursprün glich</w>
Unter bringung</w>
Unabhäng ig
Um feld</w>
Ultra sch
US- amerikanische</w>
U rugu
U PS</w>
Tür ken</w>
Tri um
Tri er</w>
Train ings
Tra ining</w>
Tr ini
To k
Techni k</w>
Te desco</w>
Tages zeitung</w>
T ak
T ah
Sy mbo
Stro m
Staatsan wälte</w>
Staatsan walt</w>
Staat sp
St euer</w>
Spe k
Sp reng
Son gs</w>
Sob ald</w>
Slowen ien</w>
Simp son</w>
Sig mar</w>
Sie d
Sheri ff</w>
Shang hai</w>
Sev illa</w>
Seeh ofer</w>
Se el
Scot ney</w>
Schlaf stör
Sch wen
Salzwe del</w>
S m
S cre
S Z</w>
Rol and</w>
Ro b</w>
Res pon
Rei d</w>
Rei ch
Regel ung</w>
Ras cona</w>
Rais man</w>
Rah man</w>
RN D</w>
R ü
R on</w>
R ing
R ick</w>
Q atar</w>
Put sch
Puber tät</w>
Präsidentschaftskandid at</w>
Präsidentschafts wahlen</w>
Program ms</w>
Progno sen</w>
Produ kten</w>
Pro -
Prin z
Pre ssig</w>
Pol ív
Pok é
Po wer</w>
Pist orius</w>
Pil sen</w>
Per u</w>
Pent agon</w>
Pau lson</w>
Papu ans</w>
Palat inate</w>
P ir
P eri
P assau</w>
Organis atoren</w>
On line</w>
Oktober fest</w>
Oc cup
O klahoma</w>
O bei
North western</w>
Nob ody</w>
New port</w>
Neu se
Nep al</w>
Na politano</w>
N in
N eil</w>
Müll er-
Musi ker</w>
Mus kel
Mol eskine</w>
Mit ternacht</w>
Mili tä
Maz edonien</w>
Marihu ana</w>
Mang o</w>
Man aging</w>
Mal i</w>
Mack ay</w>
Maa ßen</w>
M iete</w>
Ludwi g</w>
Lu isa</w>
Lim a</w>
Liby en</w>
Li fe</w>
Li brary</w>
Leon ardo</w>
Leiden schaft</w>
Lau ry</w>
Lar sen</w>
Land wir
L- 15
L ücke</w>
L ot
Kü chen
Köl n</w>
Ky rgios</w>
Kul mbach</w>
Kre bs
Kon servativen</w>
Kom bination</w>
Kohlen stoff
Ko so
Kin os</w>
Kamer as</w>
K ate</w>
K ari
Joh anna</w>
Jo lie</w>
Jo chner-
Je b</w>
J ens</w>
Invest ment</w>
Intel ligen
Indonesi en</w>
Illin ois</w>
I ri
Hy dro
Hor st</w>
Ho ward</w>
Hi span
Her bert</w>
Hel d</w>
He ather</w>
Harmon ia</w>
Hamp ton</w>
Halb zeit</w>
Hal binsel</w>
Hac kler</w>
HMX- 1</w>
H ölle</w>
H undreds</w>
H ek
Guardi an</w>
Gremi um</w>
Gord on</w>
Glen core</w>
Giuli ani</w>
Geschäfts führ
Gericht shofs</w>
Ger äten</w>
Gem ü
Gebur t</w>
Ge winn
Gali cia</w>
G öller</w>
G öhner</w>
G litter</w>
G ie
G aus
Fri ends</w>
Frei e</w>
For men</w>
For derung</w>
Finanz minister</w>
Fil ms</w>
Fi fe</w>
Fast ow</w>
Fahrzeu g
F G</w>
Ex tre
Europä er</w>
Er ste</w>
Er nennung</w>
Er fan</w>
Ent fern
Ein schü
Ein satz
Effek t</w>
E ste
E lysé
E ber
E S
Dun can</w>
Drit t
Dou ble</w>
Dor oth
Dong gala</w>
Dokument ar
Do yle</w>
Diskrimin ierung</w>
Dies el</w>
Dep uty</w>
D sch
D allas</w>
Cra ig</w>
Cor ne
Connectic ut</w>
Con servative</w>
Con rad</w>
Communic ator</w>
Clu bs</w>
Char est</w>
Chall enge</w>
Ch or
Ch erie</w>
Ca str
C o</w>
C au
C an</w>
C ZK</w>
C C
C B
Brit en</w>
Bri s
Bordin i</w>
Birken hof</w>
Besor gnis</w>
Beschäf tigten</w>
Bes etz
Bern hard</w>
Berei che</w>
Ben zin
Be zeichnung</w>
Be glei
Bat on</w>
B und</w>
B eine</w>
B and
B ahr</w>
Az endorf</w>
Ay r</w>
Aval anche</w>
Außen sei
Außen ministerin</w>
Aus lands
Aus gleich</w>
Auff order
Auf nahme</w>
Auf lösung</w>
Atlan ta</w>
At tent
At em
Asen dorf</w>
Arro yo</w>
Ar men</w>
Ant on
Angele genheiten</w>
Analy sts</w>
An teile</w>
An ne</w>
An grei
Alko hol</w>
Alber to</w>
Alas ka</w>
Al te
Al most</w>
Al len</w>
Al ha
Al aba</w>
Ab treib
A tl
A pollo</w>
A ly</w>
A la
A C
A 8</w>
30 -
2 .000</w>
197 0s</w>
13 .</w>
12 ,
10 0,000</w>
1. 6</w>
1 60</w>
1 30</w>
-S ieg</w>
Č T
überra scht</w>
über ein
ü hr</w>
ör en</w>
ö stlichen</w>
ö s</w>
é r
än ge</w>
ß te</w>
ß ig</w>
Ä u
zwei felt</w>
zwe ck
zuversi chtlich</w>
zu legen</w>
zu kommen</w>
zi ele</w>
zei ge</w>
y ou
wär ts
won der</w>
wirk lichen</w>
wir kte</w>
win d
wenig stens</w>
well- known</w>
wei gerte</w>
w ein
w eh
vol can
virtu ellen</w>
veter an</w>
verheirat et</w>
verfüg bar</w>
verein igung</w>
verbin det</w>
veranstal tet</w>
ver wir
ver mi
ver ließ</w>
ver lief</w>
ver letzten</w>
ver he
ver dopp
ver bot</w>
vari ed</w>
v est
v ei
unterstütz te</w>
unter zogen</w>
unabhängi gen</w>
tä glichen</w>
tw enty</w>
tur bul
tu al</w>
tru cks</w>
trig ger</w>
tri ck</w>
treat ments</w>
tre sses</w>
trav elled</w>
trage dy</w>
traffi ckers</w>
tra de
tou gh
tou ched</w>
tor ture</w>
tor ate</w>
ti tles</w>
ti se</w>
ti p</w>
thre aten</w>
ther wise</w>
th ri
terran ean</w>
ten sions</w>
tempor arily</w>
tel e
teen ager</w>
te urer</w>
te ter</w>
te eth</w>
te ch</w>
te -
ta h</w>
t one</w>
t ings</w>
t emp
system ati
surpri sed</w>
surge on</w>
sub mit</w>
stur m</w>
struc tures</w>
struc tural</w>
stro ke</w>
stri ker</w>
strength ening</w>
stre am
stitu te</w>
stimm ten</w>
steig ern</w>
statt dessen</w>
st ill
st eri
st au
ssi p</w>
sprü che</w>
spro ble
spir itu
spezi ellen</w>
spe aks</w>
sp y</w>
sp unkt</w>
sp häre</w>
sp ark
sor g
som ebody</w>
soli dar
sol ved</w>
sk ý</w>
signific ance</w>
sie gt</w>
sich erte</w>
si ck
shar p</w>
sh op
ser ver</w>
ser ie</w>
sequ ently</w>
semi- final</w>
se mbly</w>
schul dung</w>
schot tischen</w>
schei be</w>
sc ape</w>
sal ary</w>
sa ßen</w>
rö mischen</w>
ro id</w>
ri dor</w>
reti red</w>
restri ctions</w>
rescu ed</w>
reli able</w>
refur bish
recht lich</w>
rech tzei
re vel
re semb
re lu
relu ct
re d-
re b
ran ging</w>
radi k
radi cal</w>
ra dar</w>
r er</w>
punish ment</w>
prot ecting</w>
prop ag
premi ere</w>
pra c
prac tical</w>
po v</w>
po sts</w>
po pu
plan ets</w>
pl ätze</w>
pl ots</w>
pil ots</w>
perman ently</w>
per su
per mission</w>
pen sion</w>
pen ding</w>
pass es</w>
parti san</w>
par lam
p tion</w>
p her</w>
p ages</w>
ot ing</w>
organiz ing</w>
organis er</w>
or chest
ologi schen</w>
occasi ons</w>
obe se</w>
no wadays</w>
net z</w>
neighbor hood</w>
nach ts</w>
n amen</w>
männ lichen</w>
mus st</w>
motiv ation</w>
mon ati
mo on</w>
mo bil
mix ture</w>
met ro
mei st
me als</w>
man gel
main tained</w>
ma ps</w>
m ungen</w>
m ly</w>
loc als</w>
lo h
lo bt</w>
list ening</w>
lin ke</w>
lin ers</w>
lin dustrie</w>
ligh t
li tres</w>
li p
let t-
les son</w>
lei tete</w>
le blo
law makers</w>
lass ungen</w>
langu ages</w>
lan es</w>
l ot
l i</w>
kümm ert</w>
kräf tig</w>
kor ri
klein eren</w>
klei det</w>
kl in</w>
ki d
kam mer</w>
k y</w>
k nee</w>
k li
k ins</w>
k eln</w>
k W</w>
jek t</w>
jag d</w>
j ung</w>
j aden</w>
j ack
it z</w>
issu ing</w>
ir ge</w>
invol vement</w>
interess ant</w>
inter viewed</w>
ini erten</w>
ini en</w>
ini ans</w>
in der</w>
i i
i ans</w>
hei tlichen</w>
he ated</w>
hau l</w>
gu ese</w>
grün den</w>
grund le
goal keeper</w>
gi a</w>
gew ohnt</w>
gestri chen</w>
ger ten</w>
ger ingen</w>
genö ssi
genie ßen</w>
gen -
gel en
gel ebt</w>
gefähr det</w>
gebor enen</w>
ge eignet</w>
g äste</w>
g lance</w>
g ate</w>
fre unde</w>
frat ernity</w>
fra ge
for um</w>
foot age</w>
floo ding</w>
fle w</w>
fl ag
fei ert</w>
f ted</w>
extrem ist</w>
exten sive</w>
exp enses</w>
exp and</w>
exc ited</w>
ex ternal</w>
ex emp
ex ecu
ex am</w>
eu erung</w>
et -
ess in</w>
erwäh nte</w>
erwar tete</w>
ermor det</w>
erklär ung</w>
er staun
er fuhr</w>
epide mic</w>
entwick elte</w>
entscheiden de</w>
ent fernen</w>
ens wert</w>
enor m</w>
engine er</w>
en en
emp fin
eli te</w>
el ement</w>
el ed</w>
einge liefert</w>
eig ners</w>
eh er
e en</w>
e ars</w>
dür ften</w>
dru ckt</w>
dom iniert</w>
do zens</w>
discipl ine</w>
disap pointment</w>
disap pointing</w>
diplom ats</w>
dies jährigen</w>
dies elbe</w>
di st
di abetes</w>
design ated</w>
dep th</w>
den falls</w>
demon strations</w>
dead line</w>
dan cing</w>
da chten</w>
cru de</w>
cover s</w>
counter parts</w>
coun ted</w>
correspon ding</w>
con ci
co ol</w>
clim b</w>
ck o</w>
cir cul
cir cles</w>
child hood</w>
character ist
cha os</w>
ca ke</w>
c ub
c ran
c emetery</w>
c ell
c cot
brei t</w>
br and
bom b
bo redom</w>
bewus st
beur teilen</w>
betr ü
bestim men</w>
[...]
